
[PAD]
[SEP]
[CLS]
[UNK]
[MASK]
0
1
2
3
4
5
6
7
8
9
a
b
c
d
e
f
##6
##1
##7
##b
##5
##e
##a
##c
##3
##f
##4
##2
##9
##8
##0
##d
##00
00
000
##01
0000
##08
##40
08
01
##83
##45
##ac
##50
##3c
##e1
##4d
##09
##36
##fe
##f0
##dc
##bb
45
##49
##10
##80
##65
##ff
##89
ac
##a0
##6f
##32
##d9
##e7
##41
##51
##69
##de
##20
##000
##23
##61
dc
##4b
##87
##4c
##47
##6e
##57
##6c
##27
##0a
0800
##43
##55
##2c
##be
##8c
##bc
##29
##ad
##67
##6d
##2f
##a9
##b9
##60
##37
##4e
##a7
##25
##2e
##ae
##b7
##28
##21
##f7
##a1
##39
##fc
##b8
##30
##48
##f1
##f5
##68
##2d
##f9
##b1
##31
##bd
##4a
ca
11
0045
##d1
##3e
##d7
##59
##5c
##81
##b0
##ec
##aa
##33
##e9
4000
d5
##4f
##3d
##ba
##77
##6a
##42
##b5
##35
0a
d9
##62
05
##3f
f0
##8e
9c
4500
09
##7c
##3a
##bf
49
##8d
##2a
3c
41
##46
15
##05
##85
##fd
##8a
##79
##010
69
1c
de
##66
##0c
8c
##3ca
##ee
4c
##dd
##71
##38
89
##b2
##fa
79
65
##b6
83ca
ec
39
##44
6c
e9
51
29
36
cc
b9
##70
0001
##22
0c
##d5
fc
d1
61
91
c1
c9
1e
96
2c
##f8
5c
59
7c
##34
caf0
##d0
101
a9
f9
81
6f
31
99
e7
bc
##a5
f1
06
21
19
01bb
a1
71
e1
34d
fe1
##834
##64
b1
##b3
be
##88
6e
##0e
57
02
b8
ac10
dcfe
34d5
fe18
1834
d536
##f2
fe
##da
101e
##b4
f5
##75
90
##7e
##63
7e
75
ce
##096
##d8
92
4e
ae
##6b
50
##a2
5e
10
##7f
32
2e
58
e8
0e
78
8e
##3b
35
ee
17
87
3e
55
9e
6d
47
70
a5
37
67
e5
##df
25
95
27
85
97
##82
##8f
77
c5
a0
9d
##af
b5
20
c7
5010
07
b7
4b
f7
2f
a7
0d
001
d7
80
##011
0101
28
60
8a
bb
##24
##2b
23
4a
0f
ba
d0
aa
3a
30
ad
3d
0040
3608
40
##890
c0
43
dd
7d
cd
e0
fd
6a
5d
4d
2d
##26
b0
7f
fa
1a
1d
c2
##400
18
1b
ed
2a
5a
cf
a2
7a
8d
da
##8b
48
9a
ea
bd
100
ff
b6
38
3b
68
4f
eb
9890
96a0
9096
42
c8
1f
76
03
##db
bf
##74
a8
9f
0108
af
##f3
88
98
d8
3f
549
62
8f
##f6
73
1e1
f6
##d3
##ab
##86
##d4
82
df
ef
5f
##84
080a
33
##d2
56
46
5b
f8
##d6
f2
0080
551
e6
##fb
1000
db
##f4
7b
8010
16
66
f3
##006
b8ac
a6
c6
ac6f
d6
##5b
72
e2
cb
22
##a4
0a08
2b
6b
d3
9209
0955
8b
5492
26
12
52
86
##a8
##a6
9b
1e15
d2
fb
5515
1549
0b
b2
##a3
##56
ab
63
53
e3
c3
93
0002
##f06
04
b3
83
a3
13
34
##5e
##fff
6f36
64
##5a
##e8
##78
##058
e4
##7b
##5d
##e3
##e4
##e6
##5f
##54
74
##58
##ea
##ed
##e2
##ef
14
##52
44
##eb
##53
##e0
##61c
adc
##73
05dc
##76
##02
##7a
##405
24
a4
350
##e5
##06
##7d
f4
94
##72
de00
54
8011
4011
ffff
84
d4
bede
c4
##4d9
##90
b4
bbc
##91
0034
##94
##09c
f096
582f
a058
1e7
687
6550
##11
323c
e8e7
e732
3c65
4d9
0005
f065
##cc
200
##c8
49dc
##c1
0100
##654
1501
##cb
0032
361c
##17
0808
##9b
##c0
f057
1ca2
##c2
##235
##c9
##96
05ac
##04
##98
0a00
##9c
4574
##99
##ce
020
360
500
##cd
##95
##cf
adc2
##c5
##c3
##0d
##c4
##93
##c6
##12
003f
##92
##1f
4341
##9d
0028
##254
##03
##97
277
##ca
##9a
07c
##c7
##14
##9e
##9f
##18
a01
##1d
##0b
##1e
##1a
##16
##15
04d9
4b69
##0f
##1c
##13
##07
##19
##1b
1e6e
f5d9
6878
d968
d9f5
309c
234d
9c23
4d9c
4520
1e7e
9cde
7405
4143
bbd
##50a
030
##703
000a
2005
3f06
##2cf
##f11
0050
##706
3654
##018
0027
0004
0105
##f7f
4908
bbe
5400
4006
8006
0012
06c
020f
##b73
##252
3502
1bae
0208
a01b
006f
5254
1235
##805
2775
8c62
758c
##576
0210
10a
906f
069
0037
5008
##fe8
0a0
96c
067
##406
1100
088a
060
0110
50e
##a06
0017
108
7e01
06f
##098
##306
dedc
0a7
061
##f0a
005b
6e01
06e
78dc
1703
9d51
##402
##a0d
065
047
efe
a208
00ff
b6fe
##a98
06d
ae9
1002
007f
249
0303
2f08
##338
ffc
b87
0550
##298
2d9
##f53
0006
1001
##206
##aaa
##450
051
109
4ad
a050
bb9
906d
##106
777
##555
50ba
##ece
647
##2e8
50a
##7f4
4c7f
##083
c24c
##806
##4cd
##4eb
cb9
##080
##690
f041
0083
##ff1
0089
bbb
##573
##bcb
##691
851
##897
80c
3607
3706
07cf
##504
f0f2
##f90
ed9
8dc
0087
##6e9
##89d
0a9
##f84
5783
##570
cf7f
659
##d11
6f7
6900
##217
##a05
6f39
c2cf
##40a
##f02
##398
##49d
39ab
65c
ab73
f056
d942
##43f
068
##2a4
##a14
##4bf
6e7
##f52
7ae
##3fd
027
e47
##333
003a
0de
232
##ee8
##4b9
2e1
##2e4
bb1
ac4a
001e
##370
7933
636
##207
##69d
##4e8
##001
##454
##f14
0a1
##4ce
##b82
##8d0
##790
##2ce
025
##be2
##307
##3d6
##3e8
##104
##617
2fb8
##490
##e90
##8ed
##463
##29f
bb7
##fa4
##4dc
0ac
002f
##2c9
4548
##ff6
##378
##8a5
9683
10c
##b81
##439
##bd0
##37c
0033
##f0d
3b6c
##32d
036
##41d
##6dd
##f04
7fc
##6a6
3406
4805
327
##203
##290
3d7
0300
1004
5bc
##45f
##418
##664
727
023
##bf4
##390
6ec
##d0f
0020
##aa4
##2d8
ff7
6252
787
3a7
0035
##ba4
##2ec
4b9
##796
40c
c27
ae08
##b06
1008
287
##294
6208
##baf
##802
##b56
987
##663
##285
##666
##2eb
##8ce
##812
##6f5
4a7
157
##3c9
17c
##41b
57c
##f54
3604
7808
e89
3306
2f06
e87
##624
8000
0003
##281
4d7
0016
##be9
##b0c
9ac
##4b6
##a0a
0030
##403
747
323
##b86
be7
##215
##334
fb7
##404
##8e0
267
ed7
##ff4
050a
##a90
##aa8
##2c0
##20a
##4e9
##b05
347
0dc
4ac
6d7
##8c8
##d06
##602
##2cb
##0e4
##376
##8ca
##6ef
##2d6
8fc
##b0d
6fe
##f2b
##3a2
##f9c
##291
##3ed
##804
6fc
151
##373
6d9
##b5a
dbb
##dd8
##4fa
2b9
fe3c
##f0b
6dc
##288
50c
##ee6
5b9
5ac
##10a
751
##6a4
487
##41a
1de
383
d87
##6db
##21a
##b24
##bfd
##803
887
cac
0023
##302
f36
##a0c
37c
##218
##352
##4b8
b36
ef7
##4c6
##da8
##4c2
336
##eeb
002e
##8e6
##622
##2a8
##af6
4e1
##d02
736
3630
##da2
##62a
##f5b
##d53
##f15
##090
767
##2ed
9b9
##80a
##b02
86c
##bf3
##37a
##62b
##214
##2ee
##452
##3a8
db9
##435
c36
##b88
667
##590
eb9
283
##3c6
##3c5
##f1a
05c
##438
7dc
##202
##b3b
##b5b
##6a2
##105
##add
c6c
##4a3
0fc
##8e8
##05a
##2e9
508
##430
##d16
15c
8ac
##37b
##466
##b85
##bfa
##25d
##45e
2d7
##ee5
##6a8
##b03
##41e
##daf
##81d
##3e6
5bb
##ad0
cfc
2800
##3df
7e7
de08
4e7
049
##444
##3af
c1d8
7f7
##f5f
##43b
##6a5
##224
177
##417
0200
##48a
##854
3506
dc89
##80d
8a00
##2e6
##391
e27
ea7
##d5b
##2c4
##f88
##bf2
##484
783
##3ef
5b1
427
6a7
##b0f
5f7
##2a5
877
##702
cdc
##422
5fc
##eed
##f9a
##656
##379
##424
##4b7
##464
##f82
##d0b
02dc
##a02
##4b0
677
0d9
##316
c67
##42a
##f94
9d9
##4c0
b902
##d14
##4af
##ffc
##fdf
dd9
007b
236
##2a3
5018
##f8f
547
##797
##419
587
aa0d
##717
##4e6
##a04
##431
867
ce9
##6e4
6e1
##48f
949
5d7
##b53
##bf6
##35b
##45d
##612
##6d1
##356
##2fb
##65b
##43a
##40d
##4f4
##f1c
##45c
##3ec
##102
##6a3
936
##df3
3a06
##b64
##89c
##3d4
##61a
1ac
627
##af3
##502
##3d0
##46b
##a0b
aa7
##414
##6d2
##b5d
##222
cd9
##b26
##66b
##486
##6ab
f6c
577
##6f6
##33b
##4b3
##40f
fbb
##d0d
##626
##33d
##d5f
7e1
##ba8
6c8b
##6af
##3c0
a47
##40c
##286
abb
##2da
##253
7a7
5d9
##43e
##4c1
##4fd
35c
27c
##b04
##a1b
##ffa
##ddf
##4ca
##50d
227
##284
##3d3
e67
##3db
##fda
##43d
##ae2
##303
##4ea
##f0c
##ba6
##a92
1d7
##f0f
##05b
##2d0
127
0bb
##455
##482
187
##399
##55e
##fd8
##3c3
##3ee
##458
##416
##3e0
2a7
##374
##103
3dc
836
##f1d
##48e
300
##ba5
##bab
cb1
b6c
5dc
87c
##b22
##55b
436
##2c3
536
##f58
##ad2
##4cf
##211
##f07
##f5a
##b63
1f7
##b8d
##f5d
de1
##2d7
##f17
##f18
##f56
3d9
1bb
2dc
##293
567
##adb
##0ef
##6d0
##434
5098
20c
##4b5
##603
##d17
527
##ff3
##45b
##382
##70d
##d03
d77
5b7
##21d
##28d
##d0e
##b8b
##70b
##b8a
##317
##ad1
683
##35e
##433
##b52
##10d
##2f1
##314
ad9
66c
d0c
##ba2
afc
##8a8
##2a2
76c
##f8b
##f1f
16c
dac
##65a
##f03
##d5d
##3d2
##4b2
##282
##b84
##3e9
##226
##4e2
##38f
3b6d
##23b
##d1b
##2d1
##3cb
3006
##437
##d1d
##29a
##4a8
5e7
147
##4c7
##d84
8e1
##4b1
fd7
##25f
##2fd
##3a4
##41f
##216
##212
##35d
##bfb
447
##f05
##4ba
##28a
7d7
077
0600
##bf8
##fd0
ae1
759
##dd2
##48b
d6c
##48d
##ff8
##fdb
##335
##204
##2c2
0d7
##fd2
##28e
##3ea
##37d
##4c8
##aa6
##45a
eb7
47c
3b9
##dab
##451
##ad6
##22b
b67
##2cc
##ad7
##f5c
5a7
7b9
##388
##fd3
##ff7
bd9
##4be
377
##296
##606
0fe
dd7
##29d
##b8e
##b6b
##d1e
##616
##3f6
##31b
##2fa
##79d
##415
##da6
eac
##21e
##2f2
##2f9
##488
##b0e
90c
8b9
##4ed
8b1
##2e0
##2ab
##4e3
##459
##25e
##fd4
##3d8
##792
##79c
##39d
##28f
67c
##35a
##f59
fe7
##4a6
##3da
##319
##4dd
##2a6
##b2b
##2af
##ddb
##453
##6f9
##658
##4cb
##d56
##694
3e7
477
75c
a87
##3eb
56c
##d1f
fa7
247
1fc
ba7
##2d2
fd9
##299
4fc
##da4
##21c
0400
##311
##f1b
##0e2
e59
##d15
0e1
##d58
##f96
##2f6
ad7
##b8f
d36
##4a5
##28b
8e7
##384
##2e5
##714
##2f3
##2fc
##b0b
##b07
##2db
##411
##d8f
##426
##a1a
##394
##503
##353
##f86
##71d
##d5e
##2f4
##d54
7d9
##2c1
##d52
##f12
##4b4
##4f2
##371
##312
##4ec
7de
##4cc
##ff9
##2d3
##dd6
##4f3
##f5e
##2e3
##295
927
##2f7
1a7
##ffb
##3ce
8a7
##a9a
##f13
##ff5
4dc
##2ea
##3c1
##81e
##2c6
fb9
##20d
##29e
##da3
##375
##4e0
##55f
##2e2
##ad8
##4d8
##4ab
fde
##4e5
70c
##85d
da7
##42b
##456
##4ef
##f95
##40b
7b7
e77
##4a4
149
2e7
##485
##2ca
##799
##f9d
##29b
367
##258
827
cbc
##358
##3c2
##25b
##4a2
##386
##f1e
##ffd
##2df
##699
##fd6
##fa5
##4d1
##481
##d07
008f
5e1
##794
467
##d1a
##2ef
##dd5
##d12
##dd0
c47
##21f
##10c
##318
##354
##d5a
##3cc
b27
##71b
b47
##392
##2dd
##d04
##d13
##f16
##4ee
##2f8
##b5f
##ba3
##3a3
##393
0b9
6b1
##4c4
##718
f27
c7c
ddc
##219
##4c3
##4bc
##31c
##3dd
##39a
##b5e
##2c8
##3f3
##88f
##795
##798
##79b
f47
##d86
d67
46c
9fc
c77
##4fb
##65d
bac
##3fa
##be8
f67
60c
2bb
##d18
##8ef
7bb
##ada
d5c
1d9
##f98
2b7
1b9
##8ea
##a5b
##f0e
##6e8
847
##dd3
f5c
e36
##70e
##313
##10e
7ac
c87
##292
##2c7
##297
##3e3
##372
8d9
##213
c5c
##b58
##79a
d47
387
##2c5
##315
##716
##3fb
##056
##71f
##ae0
##3c4
##f9e
##3cf
##3c7
8d7
##817
##3a5
##4bd
1e9
##413
d83
d7c
##dd4
##d1c
2ec
##457
##beb
##21b
##b54
##37f
##31d
##4c5
##409
##29c
##3f4
##715
##4aa
##37e
9a7
##377
8bb
f87
136
##814
##3ab
##a5a
4bb
25c
##793
##70f
##2d5
3ac
##015
##f19
##4e4
fac
1dc
349
##40e
##552
##f99
##8c1
a67
##41c
##fa6
##d8b
##3d5
##2f5
##ae8
##506
##4f8
##fdd
##ddd
edc
##85a
##2cd
3e1
b5c
##3e5
##259
d27
##3a6
##fa8
##3f2
8f7
9e1
95c
167
##407
##707
##4de
##395
##79f
fdc
##8e5
##f91
##39f
##31a
##704
##651
9bb
##3f8
36c
##f92
##faf
##d19
6bc
##097
##711
##35f
##818
##71a
ee7
##30d
##713
##4f6
##79e
ebb
##412
##81f
##fd5
9e7
##d82
30c
##f97
77c
ce7
##dda
##2d4
##33f
##33a
##f9b
##f9f
##791
947
a27
##f93
967
c0c
a7c
97c
5de
##ff2
##38b
##4c9
a36
##a17
##85b
6e9
b0c
259
##71c
##a0f
##80c
a5c
6b9
977
70a
##fab
be1
2ac
##719
##618
732
##20c
##3c8
##fa3
a0c
##853
##396
ca7
##858
400
##50c
##ae6
##6d8
##31f
a77
f77
##65f
##fa2
##25a
b7c
##712
##305
##ae9
##3e4
##8c7
##71e
##304
26c
bd7
85c
##3cd
##3e2
b00
0e7
33b8
6bb
a6c
ce1
##653
032
##aa5
##659
##aaf
de7
e5c
8b7
6ac
##81c
##605
5100
##ad3
##aea
efc
##39e
##39c
##8d4
e6c
cd7
b77
##053
##39b
##8cb
aac
3fc
3bb
dfc
##205
7fe
##aec
##6e0
##4df
a83
2fc
##55a
ab9
ae7
##23a
b83
##81a
##895
##397
351
bfc
9d7
bdc
9dc
e7c
bec
##614
ee1
##107
##65c
8ec
55c
##a03
##816
##882
2b1
##8c0
##31e
##bec
##6fa
##0e3
##20e
859
4f7
##be6
##8a3
##6f4
##55d
##572
##61d
##819
6de
f7c
##886
##6df
##10b
##856
##a96
##509
883
##eea
##bdf
##a12
##256
##888
##a18
##811
359
##8da
##8d8
##852
fb1
##10f
1ec
##8e3
##8ee
##bee
##25c
##019
##655
##a1d
##aeb
##8a4
4b7
##4d7
##657
##6e6
##80b
cbb
##be4
##30b
##8cd
6b7
##094
##652
##81b
##bd1
##69b
159
e0c
183
##20f
0b7
e83
a59
##85f
##686
7b1
##a16
##a11
##4d2
##807
##8a2
##6da
##553
##8e2
##bd8
##20b
##65e
##8cc
##ae3
##6d3
c83
##f24
7e9
##611
##bdb
##30f
d49
##bda
0ec
##558
7f83
f59
##a07
##8cf
##559
##aab
fe9
8e9
##692
##aa2
##8af
##8d6
##815
##556
fbc
db1
fec
4bc
059
##693
##a91
##85e
##4d0
f83
5e9
##a93
##8eb
##8c9
##6d6
0e9
##a56
##bd6
##8c6
##093
##be0
##ad5
##8e4
##80e
3b7
##30c
##eee
##615
1b7
##55c
##230
7bc
b51
##4d6
##6d7
c51
##ae4
##231
a51
##8c2
5ec
##09f
1800
0bc
ab7
4e9
9b7
##233
##ee4
##61b
2e9
##8d3
651
##a1c
##696
4b1
cb7
##237
##8db
##505
##688
9e9
##4db
##a13
##a94
4de
df7
##bd3
##bef
##dfb
##4d5
##8d5
##bd7
##bd2
##6fb
##8d2
##6d4
##6e5
##896
4ec
##8dd
##6ea
ee9
##8c3
2fe8
2f7
##eef
##6f1
##df4
##ae5
4200
932
af7
3f7
##aa3
##ee0
db7
649
##884
##a0e
0b1
##4d4
##61f
##aed
##bea
3fe
983
eb1
##684
##6fc
##8c4
##813
3206
##50b
##8ab
b32
1b1
##6ec
##a53
##554
##60d
##be3
be9
332
583
##68a
##bed
##0e6
951
449
308
##bdd
483
##8df
##be5
##61e
632
cde
##a95
3ec
47f4
251
##69e
##685
##89a
2de
##6e2
##6ed
##ad4
f32
##a9b
##88b
132
d59
bf7
##682
##05f
600
##63b
##894
##bd4
##afb
##7fb
##80f
##a9f
##613
c49
##8a6
9b1
##a24
##4da
##6f2
##6f8
##f26
##a9d
##a9c
##a1e
##6f3
##aef
e32
##ee2
9f7
432
##bd5
##681
##6ee
eec
dbc
##7eb
##8c5
##6eb
532
##69a
##579
b59
##01f
3b1
##ee3
##a97
##a9e
3e9
##4d3
c24b
7ec
0f7
##05e
##a99
##60e
959
##619
##7e8
6583
ebc
##68f
1bc
e0a
##507
2bc
##57a
##a52
##695
##aee
700
800
ab1
##6fd
##a1f
f51
aec
##69f
cf7
##68e
832
de9
##698
##69c
##50f
##50e
##6d5
##a19
##adf
9bc
8bc
f0a
50ef
##a54
##6e3
4338
8de
07c2
f576
a32
b49
00fc
##a5e
d0a
##a5d
##604
c32
##a15
8900
##df6
##68d
##75a
##6f7
c59
e48c
c00
9ec
##05d
4183
3bc
e51
##68b
8cdb
80a
dec
d51
##30e
3de
##697
2d92
0f83
eb6e
##054
60a
##239
efeb
7f0a
8fe
##7f6
##092
0031
abc
##75d
##234
d32
249c
a00
7308
##23d
##052
cec
##a58
##7e6
##89e
1fe
##57c
650a
e08
##89f
##753
##014
a49
7f06
559
##758
##60b
8018
##238
##01e
##09e
ffe
##57e
408
9de
b0a
##09d
##23f
7f11
##091
9fe
6d3a
##57f
5fe
##752
##756
##095
##7e0
40a
##891
c08
##23e
908
##60c
6400
eb00
cfb8
30a
708
208
##575
##75f
f49
0402
##09b
##57d
808
##af4
20a
a08
##7ea
##898
##7f3
##a26
##574
608
d3aa
##099
ba08
##a5f
##899
##a2b
##7ed
ba98
ae98
##017
##013
##607
90a
##893
##75b
cfe
c0a
##75e
##7e4
749
##09a
##578
ede
afe
##754
##571
##577
b08
##892
##57b
ade
##7e5
4fe
dde
##7e3
bfe
##7ef
f08
849
##7e2
e49
bde
##89b
##60f
2fe
a0a
d08
##0ed
##01d
900
##01c
##0e8
##016
##012
dfe
fe3d
##0e5
##0eb
##01a
d194
5555
d00
9064
aaaa
##0e0
f00
3106
e00
##0ea
caf3
cece
7061
a2b8
2000
##01b
6164
002d
cf08
5683
004c
##8f4
60ec
50aa
0477
ec0a
0a82
14eb
7770
82be
0038
91b8
##824
851f
890a
0a79
aa00
4141
3400
cff1
4a00
f632
##826
002c
ff00
##8fb
0a0a
94cd
1040
b870
782b
f283
2020
0562
##8f6
2bcb
0576
70bc
9200
000e
##82b
##8f3
3cd1
cb9f
d89d
7573
96c1
8dcc
8175
cccc
cc91
4f81
005e
91be
73be
001f
0882
bcbe
3806
8741
4508
3800
f400
0008
4b00
0a02
7600
0077
e000
4504
db00
1010
a298
2787
6f11
0a01
23ac
41ac
9f84
0405
004e
0604
060a
6000
3300
9600
1c00
e76a
0522
2e06
fe00
e010
a2e8
8a01
ce00
7398
0647
5e00
056e
001c
1e6b
3200
7690
014a
6476
c8e1
1f00
0d00
2d11
aaac
51c1
569d
54bf
bf64
0021
0fac
96e9
c897
f43f
0806
051a
0564
2e11
3f11
4ad3
003c
fe80
08f6
9700
1101
d800
65d3
4a05
d1ac
50b8
5083
01ac
0a9d
5147
f243
f49d
6e0a
8200
ff52
ff53
ffc1
4b08
38f5
8400
0132
0512
db08
7643
5207
08de
c1e4
ff02
ffc2
5307
c2e4
008b
eb55
28d0
f728
57f5
cf53
68f7
4ada
3448
03fd
4c4a
2c11
50e6
4100
ce4c
0044
7400
48ed
01fe
dabe
3333
aee8
ffe8
f3fe
01e8
d917
8078
7ae4
dd60
8570
5700
2329
86dd
c900
574b
0111
1020
350d
0de9
007a
5300
0088
e9c2
9f35
f048
549f
ced9
9000
54e8
42ce
65ce
0078
1015
cbd0
65ad
41d9
9c35
101c
0fd9
1801
e8a5
4c00
0fad
89aa
4748
654b
1f90
4245
0f4b
6a00
e454
6547
48e1
0054
6985
8ab9
003e
69f6
f3ff
103f
3500
004a
6caf
0014
1e11
6aac
5500
33ac
7f85
8b82
324b
0048
1f4b
bbde
cd23
7ff6
0217
9c00
a900
aa40
007c
1033
0500
0076
57ad
ad47
47b2
33d6
b2c9
3cbe
0084
c9be
a010
bbdd
107f
6301
bbcf
0235
69f4
5600
0201
9a00
0036
4543
a4b9
65e7
64dc
4ae7
0aad
0070
9c5e
e463
c9fa
ac00
1e80
9601
9fa4
9100
1007
bbec
0090
4545
000c
2046
4542
96c8
81ac
0a4b
dc9b
5000
007d
230a
4648
4846
141d
a800
bba4
4641
684a
4a14
f1e3
1005
64ac
fd83
ab00
e473
0060
e2ba
b82e
bbd1
100c
0064
4164
b010
e812
4145
06aa
2eac
005c
82ac
429f
659f
9be2
bbeb
3c00
5e23
bbc5
1a00
0301
bb00
bbc6
0a42
84d9
0062
0ead
bbc3
1080
6f0d
0079
9800
c800
008e
d418
c7d4
00d4
f900
5b50
a700
7066
bbd2
00eb
bbce
8b81
d0e4
1e88
0340
6700
0528
008a
69e2
a5a2
bbd3
bbdc
a2ec
de50
f010
3f04
ad00
b86c
005a
1b00
0c00
b87d
03ac
0047
f650
ec59
fb74
4b9a
4883
75fb
96ef
efec
6e3b
2985
3a23
c27b
d075
9c57
0061
a490
bbc8
59be
007e
e196
8370
8167
1565
e1ac
0075
2400
7af6
8cec
452c
0e4b
ec4b
12a4
8028
a600
e9c8
a442
008d
69c8
70ef
4800
f600
7fc8
4400
66a6
80c9
7160
5796
e904
9623
974b
8801
025c
dc01
2112
a000
1003
3d37
0074
ef69
dca6
10e2
9500
008c
0072
ecee
0d6f
0a4e
6b01
92eb
ca3a
32bb
1cc9
caf2
2c05
b8ca
29ac
eea4
bbca
7dac
1527
bb56
ccec
0378
e104
5be9
ed98
af2b
a500
6eeb
23e8
113c
be74
fc78
6285
c010
a632
005d
2700
6ecf
c8e0
bbea
e870
005f
1132
8b00
6e00
85b2
532d
552d
2f54
c208
bbcd
bbc4
337c
67ac
0109
3aa4
92cf
f62d
8c00
de2d
0042
4b42
010d
e94b
a100
8001
2900
a400
9900
bbd8
8f00
9e00
7010
9300
8d00
af00
0ac1
0022
001a
c650
16ad
0238
9400
8e00
a200
0024
9850
10ce
a300
bbd0
ff78
8800
004b
484d
654c
8064
000f
9f00
1500
9d00
b41b
56f5
10ac
4d00
ae00
e600
0063
06fb
0073
b600
8700
9b00
b908
0066
6c00
0091
4e00
0068
bbc2
9491
8600
7ee6
e8c8
cc60
6cac
f309
354b
9cec
1eb1
0401
6d00
f380
100f
0c69
0026
4d7e
bbe8
006c
dbb0
cd29
036e
e6db
12e8
18ac
0085
2a00
3a20
7512
73dc
d169
0065
a4ce
fe90
0086
f4ac
0693
004f
7bf1
1570
c0f3
c298
0900
3100
6617
0049
bbcc
9f46
3281
7f9c
2500
9691
1eff
6066
6408
004d
1802
0603
4617
b400
1e59
e900
0092
82a7
3ccb
0098
82cf
0c60
0601
0071
7011
bbc7
7800
73ed
7040
0082
7ffe
ed73
ed99
0081
1700
5f14
0a1a
8bf4
0018
2a65
8c60
699c
acea
a45f
37ac
0aa8
4c60
f500
3a00
061f
00f3
d691
e664
1600
3d7a
0a51
fc00
10aa
5691
0025
1691
0baf
0608
7bd9
3540
c000
2d06
1017
987b
f1fe
b100
4600
3d00
00f7
e666
0067
0a7c
c400
ba50
e667
bbc1
10a9
e665
8500
b783
006d
6800
11ef
3600
1e69
0043
0640
2b00
e203
69c0
0a5a
740a
ca14
101d
04ac
0053
0029
e668
acfa
1dac
3a28
bbd5
00d1
c300
06c3
1201
e34d
0046
7ff4
ec9b
28ac
3f4b
b000
0094
288d
f3ca
d032
3900
1498
d0e3
b101
3000
b200
0dac
00e3
2300
0205
86ca
0051
5c00
976e
7ae3
966c
6100
06dc
b300
0052
006e
36e4
fa00
ffb8
5b00
10ab
0261
025e
e5ac
bb9c
3f4f
6f00
1765
bbc0
b9b3
0a40
e3c9
e88d
4a7d
a88d
0057
bbfd
cb00
ff80
ff4f
dc00
3700
7f4f
1006
688d
0260
0093
002b
7c00
00f6
7700
101f
c8ac
06f4
f2a4
0e00
00f5
cd00
2b06
0102
2983
0a4f
7500
4700
c200
157a
96d9
4166
b800
9db9
8300
7023
ec00
006a
bf4f
0700
0a73
dfac
f217
014e
6e74
7278
de2a
ecbb
2d00
0097
baf3
2c00
0069
001d
1400
be00
b36e
b700
0302
6e68
ed95
6500
ea00
025d
006b
3439
0b00
b500
00de
025f
10a8
1140
96c9
7991
6901
5748
0059
7aac
5bc2
00fb
17ac
cbac
2c20
7429
fb00
ba00
8100
f200
0058
ecdc
bbf9
5200
7780
3f00
7b00
ea98
2b92
4897
06f5
7d00
ca40
bbac
d1f9
6b00
e400
3668
2100
2200
f000
faac
1d00
4b65
6200
23ae
00a0
dc30
11f8
bbd9
e100
3b00
0015
ca00
0019
0de2
10ad
66ac
1300
2e00
f602
00ea
bbf3
dd00
0056
2283
1eed
d9e6
4900
d600
5104
b900
7000
c8e6
74c6
6600
c7b3
2036
f100
659b
e500
e89a
7a00
4f00
cd22
3133
6e80
1e00
060c
4f45
f300
1900
189c
e800
2706
0f00
95bd
6300
5a00
0675
5f00
d400
4300
3634
cf00
6551
9b0c
c500
eaac
3007
7019
9c82
7100
5900
bd0f
7e00
10a7
82cb
7300
7200
a8ff
1200
fde5
9ac8
bbd6
48ac
5800
3dd8
10ff
2539
c600
7f00
bc00
cc00
96c6
c904
d500
8be2
d300
06c0
2f00
80f8
7900
0095
1de8
feac
e200
ee00
2845
5d00
c700
2dac
06a9
6fe5
ac83
c080
d100
e750
fd00
d000
7169
1601
0041
6b41
06cf
df00
deba
e300
da00
06ce
57aa
6d64
bb28
3e00
bbe6
7874
4004
3011
1f14
964b
e2ac
0007
17c4
bbda
ed00
2600
40c9
a40a
6e73
c100
0a59
36dc
94ff
4a81
0055
bf00
d200
f700
a41a
ed80
ef00
f800
bbcb
636f
1708
2ee5
bd00
ecb0
05ad
3761
0667
00ed
f1ec
a14e
fa81
6581
0096
0805
d900
9160
bbc9
5ead
2cac
6098
d700
ae9b
45b6
415d
8bac
0680
00f2
9b9a
bb50
5901
519c
e700
1504
1030
4734
737b
1603
cb10
f508
ce87
9a1b
046e
4e06
faaa
bbdf
e931
96c7
010e
01ff
1808
fe50
3241
ce8b
f0b9
3378
1218
7633
00d3
ec95
0127
7f27
c790
0262
0121
205a
3905
2294
030c
28ba
cac2
5aca
c252
6f40
8acc
cc01
a150
f25d
1408
2025
d9dc
ef0b
f1e4
a047
4c9d
2920
52d6
b6e9
af20
b0dc
1571
981d
3191
ad4e
7983
3640
7ce3
fa04
d656
7593
cb1d
4056
0698
1f5b
949d
d6dc
d298
21a0
1840
74ce
14a0
6f72
6080
b828
f5ef
0d0a
0fe2
ec08
6ca7
4af5
d8ac
34b8
0650
0013
a7d1
7de2
516f
0983
9283
da0c
06ac
9dbe
0e40
c5ac
f36c
9865
10a6
0683
bb40
7f7b
ce49
c291
9138
94fa
cea1
00fe
73e8
c6c8
8e84
2840
1e24
0fc6
9d0f
497f
d55e
ef74
91fc
80c7
7f22
2380
fb4a
00e2
1da8
56d2
df6f
894a
b1ce
fc51
62ed
e0d5
dd90
faff
c1ac
9f7f
b940
38a9
000b
2df3
06cb
002a
391f
dc40
0de1
5011
e0b8
d010
7b01
28dc
1e51
0240
298e
0440
e3be
0010
f3a2
00e8
6f6f
1a4b
0c4c
b32d
1de4
afac
a0b1
bb83
09fb
58ff
65c4
3c09
84c2
ac40
4167
a198
1aa4
00b4
09e0
e2ee
c91f
b001
6593
c439
0617
7726
c8ce
064a
b986
0840
e594
caf1
ee2d
8c01
a524
badc
77b3
c672
0c50
a9cb
003b
a215
ba80
9c24
0011
89d2
a82a
064c
6d51
bbd4
bb5a
7373
0450
656e
dc67
3240
4e59
adc8
9ac7
4e5a
a2d8
00af
0f50
0501
e477
bb9d
b040
dd4c
5b01
7c4e
00ae
d203
01ec
cf40
0c29
e3bc
3caf
c72e
5b40
b5ae
3606
7c61
c88d
bb90
6f6e
9add
ce40
7050
696e
a5a5
062d
2022
57c1
2a68
21ac
adc9
d640
3550
0687
202b
06da
65b4
683c
42b4
b550
4302
0140
48ce
064b
99dc
06ea
74ac
5250
08ce
9029
1f40
3db5
dda2
a040
3c50
1011
0a50
3233
3c01
6d40
ed01
88ce
d23b
f1ed
6163
aefe
3440
06d7
1e40
c999
575b
06fa
0654
06ad
bb24
bb39
a640
5c50
4240
a740
06b4
060d
4050
5040
3dac
7880
0099
223a
b650
6e40
6140
1039
797e
c740
0670
1b0a
db40
ca01
5d40
1bd9
1e77
6940
8740
a948
4740
63ac
1aa0
c450
009a
2101
4b40
2940
0d01
00e9
9a50
ac44
1c40
f840
1340
001b
4e40
4a40
1740
5150
8dde
f6f5
d840
3740
ac70
8a4b
eb92
698d
b840
bbf4
6440
4e4f
bd50
8140
ac43
ea40
010a
0f40
7540
00a9
6f6d
0643
8f40
4540
d740
7d40
f040
eb40
1d40
6040
9501
cb0a
a940
5e40
5740
6540
5f40
b760
5421
06df
2a01
9b40
7640
5a40
6240
b740
6740
93c5
f940
065d
e940
0642
368c
9840
023d
73df
4ddc
06e6
5240
4140
d240
06fc
ec40
3340
5c40
2040
0128
9440
7b89
df40
4440
c040
7840
8940
7e40
7d50
4640
4040
42a8
bb80
8c40
10a5
2676
0009
2240
6640
02b5
e840
8ad0
06d1
5a5a
5aad
c0e7
8b40
ee40
ad6d
3030
0940
6840
0540
ed40
7b40
c340
c640
1440
6a40
6c40
0d40
2c40
4f40
1804
0646
e669
5140
e140
a09c
8440
0740
72ac
0690
fe40
7340
de40
a840
5d83
5003
ff40
5440
2340
f140
e240
bb0d
7450
0624
2606
6340
da40
fb40
ae40
c240
4840
bbdb
7740
2e40
0a05
fd40
9040
7240
726a
1a40
1aa6
89dd
2140
0b40
d250
7f40
fc40
5940
7140
3a40
1b40
e440
3c40
8240
4d40
4c40
4340
2d40
5105
5340
7472
baad
d940
7750
d540
f740
1540
c940
e540
8640
c140
5850
a140
f901
c840
c391
3d40
c440
b240
50d9
6b40
4940
1694
f240
6150
9640
0c40
010f
9e40
3e40
bbfa
1240
026e
06b9
9240
7a40
5540
b540
ef40
d040
bf40
7940
f540
3c80
deac
8e40
4e14
9a40
b640
4e50
c540
f340
9340
8040
3040
3840
8a40
8840
9540
011e
0a5c
5840
1e50
2740
fa40
1090
faad
06a8
d340
1940
3f40
9c40
e701
d140
bbe5
1640
f440
2f40
be28
1524
3140
2440
8340
e340
bb85
2a40
be40
0659
06f2
0651
de06
adbb
2540
af40
bc40
f640
dd40
8d40
e040
5640
cb40
cc40
7440
2b40
db98
9740
d050
6750
7c40
3b40
e740
8540
2640
9940
06e5
b440
3940
c303
a440
052b
00e7
b140
7680
9140
06d6
7650
ad40
bd40
448a
5350
0e01
a540
d029
ba40
06b8
06bf
9b01
d440
b340
e640
5a0c
a240
cd40
a340
9d40
3246
9f40
ab40
063c
f294
1699
00a1
062c
2001
c850
5101
e3d4
50f1
313b
3361
40c8
bb86
0b35
7cac
06e9
06e8
0605
46d0
e663
06b7
cb50
4cb3
5007
4c50
bb26
1012
6dfe
009c
42ac
a8a1
ca83
011a
06b6
1e3c
d248
6525
cbfe
0656
03b8
c80d
8fc9
3d2c
eb05
4948
009e
fa66
821a
3aad
9f50
06c4
3a29
fcb8
009b
2760
b842
6ae1
b6f9
d895
7401
c015
0039
7a4e
7aad
067c
1027
4a50
73e7
00b6
d028
2401
6452
5097
57ce
3bfe
201f
5eac
b983
bb72
009d
e1c3
4a1a
8850
e043
48a8
cf48
0641
8a5b
15ac
125f
4adf
0618
d334
06ba
f46a
c346
b00a
50ea
6aa0
83ef
06b2
ef4c
ce96
803c
0614
0f4f
060b
bbed
c4ac
5c6d
06f8
06f3
06db
1cf9
bb05
6b1f
0660
4142
e6dc
9350
067d
d874
00ac
06b5
0237
25b7
061a
2f29
6365
c8ff
cf1a
069f
10a4
a250
063b
93b0
06de
984e
8f9a
bbf2
1a0b
06e7
026f
00fd
0305
065c
06b0
a880
06ec
06ab
d854
06d8
441e
2935
108c
06d5
7744
069a
d1fd
0628
c2ad
8670
06b3
4fa0
06f9
06b1
2806
94e9
02ac
06e4
fe5b
1093
0697
0602
ef7a
06e3
06d0
06a7
d268
334a
04bb
278e
ca09
bb48
5a86
108d
ca92
514d
6356
c255
90e4
99cb
026d
3624
00e6
71db
0696
7b08
1427
065b
ca38
4804
068d
06d2
0695
af46
eb72
0692
79c3
1092
9201
c78e
1183
00f9
29a1
3cbf
0673
5096
bbb2
3d72
06c6
0ab0
eb0f
06d9
1ac4
00e5
d805
1d16
bb01
06f0
ce3c
bbd7
ccb1
392b
0630
c61a
2ba1
0606
06e0
e974
df94
aa7d
000d
4eac
6e50
06dd
d044
ced1
cdc3
2b3a
de5c
06c5
abbc
0674
26ac
cd53
7980
e352
7706
06d4
7806
061d
06a6
06a5
72dc
3a77
b3ac
615c
f9cd
0634
1096
108e
4c89
003d
aced
2435
10a3
6bc3
28f4
06af
142f
06ee
064f
06bb
068c
9daa
f164
1094
f399
06ff
06bd
0625
cf88
0644
8b1c
3648
066d
06a0
b008
0a68
06be
065e
06f6
065a
150d
cfc4
b612
061e
c6dc
0663
6f67
cd9d
3977
065f
97ac
0662
0645
06eb
bcaa
06ed
b2d8
5b4c
0686
2595
1091
e1f3
cd43
06c1
3a2e
aad2
062f
bbef
6ec6
06ef
c4ce
729f
06f7
df8f
06e2
d6bd
0699
fc11
05b6
0631
108f
06ae
062b
05c7
8349
c00c
df6c
0638
5cbe
0664
062e
c493
0655
ea06
06bc
8376
ec5b
d176
bbe0
06a1
012b
06c8
c01e
06e1
e8f9
0609
24cd
100a
06ca
0657
f9bc
c1f2
3ca9
c7d6
06c7
07f0
064d
0679
0629
109e
068e
0104
0aac
8a06
90fa
0672
0691
c404
0665
bc0a
d83a
3fe9
066f
d2c0
b15f
10a2
3801
06f1
bb33
e47a
5797
c38c
c316
06a3
108b
28bf
7093
c301
0676
1805
064e
a1be
062a
0694
06a2
06fd
cdec
067b
18ad
069d
1095
de60
0639
06cc
3230
6fdf
0616
0658
bba0
05ba
0add
0688
16a4
06cd
06fe
067e
df21
0661
3143
bbe9
0633
c237
06d3
0652
066c
1403
06a4
af50
7f82
9908
0607
0627
8073
00f8
aa05
10a0
f05c
965b
bfac
5550
105a
0615
b05b
0621
1b08
0671
10ae
6a05
3261
96ad
0685
290a
06c2
0150
009f
0653
a37a
0632
c5f9
0626
24ac
063a
f05a
a183
4d08
a053
d680
0db3
0310
11ad
20ac
bbf6
1a01
066b
0649
109f
bbe4
00f1
0684
06c9
068b
04ad
0901
067f
800a
9901
109d
edaf
bbab
066e
069e
3a2f
069b
c075
0682
88de
2c06
fcac
22b6
0619
0689
0681
a180
c66d
d094
3f01
0850
1097
109c
dce6
6732
10a1
067a
80c8
6c8c
00a8
0677
061b
3f8c
060e
f8ac
42a7
109b
1150
f201
0620
068a
0611
b6ca
0668
0648
e5b0
46b6
bbe7
c531
060f
ec01
0610
0c0a
0635
e4b6
0636
068f
0622
0103
0623
c658
0613
061c
1088
0106
c631
0637
108a
75e5
75be
0669
117c
4550
b680
069c
066a
5508
9cc5
1098
6572
063d
802a
1086
0a29
c55f
1803
8180
6c88
bbe1
bb1e
bbb7
00c0
d5d0
9101
9401
13ac
063f
a9ac
01f5
b4a3
3010
109a
5690
504b
00a2
0678
1087
d724
b301
6f73
d3ba
1880
6973
4e57
1786
c112
1517
8f80
3a21
1099
b81e
00ad
1089
5de0
53ac
fc01
f331
5e65
bbfe
00c6
0612
acd7
4144
0666
00a5
fbac
bb25
00ec
4c28
aa63
17d9
2fac
9055
03e1
0241
0d26
0267
00dc
43ac
2c5a
2429
063e
ad83
5a83
00b1
6c8a
ed97
bbaf
e170
2045
80c6
37cd
7250
4480
adc3
1102
7180
d0c3
5ae2
2550
2506
8980
d40a
5283
70ac
151c
df1c
2974
ca58
bbb1
11ff
48ad
1eac
6f66
00bc
11ac
7990
2880
0202
1180
5450
700c
27ca
e25e
f3be
584a
48e8
c011
026c
bb82
15b7
2670
05a4
3183
00b2
11fa
4444
3970
6e7e
00e1
9cdc
eadc
3401
653f
adfc
4e4b
a3c6
ce24
bbfc
00a3
022c
aa64
73b6
c980
00ab
df5f
d818
3b01
00a4
2555
6601
7fe7
11fd
7058
30ac
3838
6a01
00a6
bbe3
4528
cd11
1144
327c
5f7b
11c0
1024
6c69
00b0
0ca9
7334
7280
2750
2936
110a
424d
2edc
00b8
0a32
5080
3135
2d50
9067
c344
9765
97a9
96f6
5a25
6982
bbee
9180
baac
c9c4
6d01
74dd
00cc
fe01
0ad7
00c3
8f83
8080
b041
85ac
bb34
7080
11e6
b583
14e9
00d0
4443
00e4
053c
d1e7
dc90
0125
9f80
fdac
112c
00aa
00f0
bbf0
26f4
ce01
61fd
2527
0cc9
0167
ce9c
11ee
00c1
57d1
f3ac
6f77
07a1
d750
4150
42a4
6c65
00df
8ad1
bb12
00b9
113d
e0ac
00a7
42a9
8b83
3232
0c2b
ac03
00d5
a90b
73ac
0a09
6a27
43c9
e60e
00b5
6a75
af27
27d1
8029
cb98
5cf1
9fb4
1575
0117
dd71
0a07
6d65
9897
ae4c
15c0
00c8
00b3
7e1e
bb42
24dc
4546
71ac
b050
00e0
69a1
040f
8650
c6ac
7632
69cf
c651
1e4a
a201
dc07
6e2d
859b
3235
0363
f97f
49d6
01d4
ac3b
00bd
7601
afe1
bb0c
00b7
4ac5
9c01
af2a
6fac
bbbd
2383
c36a
50a9
bb4a
789a
d201
1103
6f50
3032
e601
7a50
1486
6663
de1a
0483
5084
0802
7fc6
567f
00ba
1145
4cb8
00ee
c3ac
1806
0df9
7a78
de88
3a71
08b2
2ab5
73b8
4601
eb50
fd26
b9e0
ff01
7fa1
7370
6930
114c
1956
0750
00bb
e3af
00c5
7f01
00dd
00d6
f534
00fa
3d50
676c
04b7
d908
0a1f
00c4
11f6
6f80
965a
3266
00be
0480
d150
ba01
636c
0180
4442
bba2
508f
7e79
0278
9d28
00c2
fd49
00d2
00c7
e45e
0f01
dd25
1147
7480
e276
b064
112d
1108
114d
bbb6
ac80
5001
00cd
bbae
205b
7fa4
0542
9015
c602
3001
811f
00ca
dc50
9939
b6ac
1143
89c4
e9ee
114b
6533
6573
03c6
8150
1135
5103
1146
1142
b319
153c
f0ac
117d
9790
f24b
00bf
63fd
b0ac
0dfa
1148
1141
67af
4650
b201
2080
1013
2805
0126
6a0f
0810
4ac8
1c23
eba8
e2be
0114
ead6
bbf1
1179
3250
6963
114a
01ea
0a90
4a01
96d1
3730
1511
3735
04de
0886
2650
3408
7606
fff3
2834
0fda
7374
0438
4f80
ea83
00d8
5650
bbbe
8b25
f63c
00ef
c050
313a
3438
5789
676f
00f4
fa80
00c9
c5f8
e250
6d39
a1c6
6fe0
370b
117f
4644
052e
c154
11e3
7383
6aa8
b188
1149
1025
e202
dfbb
6f78
1aa1
00d9
3080
00db
6172
00da
95dc
4750
1193
50df
bb5b
114e
0ab7
0aa9
113b
0250
1120
100d
7bac
2d76
2496
6edc
1125
0863
e089
0124
8c80
00ce
9a01
1106
bbf8
1104
100e
96ac
5701
7665
16f6
6850
55bf
c390
00cb
5971
17eb
00cf
c401
bd3b
bb79
11e7
2850
1009
7402
9013
3450
6903
03c9
11fc
0a03
11ab
22ac
0129
0af6
bbe2
b501
7623
7a02
30fa
0417
e608
0270
7201
f6cc
11dc
e5fa
dc80
987f
9d9f
7f0f
4244
ace7
2675
6503
3283
509f
f180
a950
b350
0f8b
5c01
0a88
288f
6001
00d7
8879
d080
038f
4201
19fc
f9f6
b786
5750
bb1b
5b08
8cfd
0204
8250
7c50
f2ac
1110
fab1
fe47
11ea
11f2
11ed
ae1f
9680
1169
83ac
8d01
9bae
3ee8
11f3
1085
119d
6073
3137
43d0
bb70
0a20
9450
0cac
4401
11d2
7671
51df
bf01
4bdf
16a1
118a
1f43
fa67
1cac
1bb9
0115
3332
bfbb
0203
3b06
7a83
6c50
11ec
2973
c89c
b124
05a0
7b86
b1df
dc5d
6d50
5cad
1190
024e
7603
7850
4645
1105
8a83
616d
11e2
649d
5f01
3a66
23a4
110b
11dd
1139
c35e
11f5
deaf
11d5
5cac
0880
3f80
11e8
1980
d493
10af
6ffc
0a83
7d80
113f
11fe
4f50
7580
8024
1126
1728
6464
1109
e918
2419
75f1
797f
110d
609c
bb89
49e8
4801
8fca
7421
ca50
11fb
1031
3b03
3d80
110c
6e61
dc83
392d
11e4
f101
11de
fc50
1f83
9301
11d9
4845
1780
454e
9aac
0f07
993c
c996
bbff
11db
7afb
4980
4280
647c
d550
11e5
11eb
8050
bb9b
3733
9605
117e
5201
40dc
1573
287c
8717
8780
507e
8a18
011d
d215
55ff
1107
1186
4e44
11f7
3483
7a80
a750
5880
0a69
102c
f1ac
7422
bd83
2855
5472
3ddf
6a6a
bb1a
8581
bf55
bbf5
5be2
593b
11f0
030a
2d61
a683
2a50
0229
1783
bb57
9cac
1b83
40bc
8e01
5952
7cdb
90e6
7b6e
e526
1171
bab8
9490
8550
3938
2408
1136
a982
73ca
cbd9
1194
0304
49f0
0383
5780
2b19
910e
6eac
fd01
15da
bb91
11d6
04fd
3adb
4880
03db
11f9
aa50
4ae8
9803
1130
91ac
11f1
0266
bc60
c031
11d3
044a
bb9a
a080
f148
11e9
d773
706a
110e
5bcc
2998
11d4
b080
2b08
7989
7158
11da
2776
bb96
6801
1b86
15cb
e729
b9c9
113e
11f4
6250
50e9
110f
16ac
1195
e906
1151
5050
2252
e580
6783
2680
0a11
f950
e080
1138
6c84
8450
6680
b250
0a04
57cf
9080
3330
6e83
11e1
7b80
4ee8
5043
f080
0abe
d8ef
fffa
65ac
11d7
1111
bba5
db80
08ac
1810
28c1
2050
e150
5ae0
0461
5970
0373
d9ac
1121
5f2c
11d8
af83
bb9e
7a0a
a565
b803
1137
46ac
04d8
4165
f4e2
6450
7404
ebac
6f35
165b
4c01
428c
ea72
2801
012a
0db9
5a50
0a3c
e050
2c21
113a
ae50
ec50
1134
1124
bbba
11e0
2031
b7f9
62e9
1133
7a88
f980
153b
7550
3530
3480
0283
15df
bb61
bb04
bc01
a801
c183
64a0
4450
2180
11a6
0280
6f20
0fd7
6f79
1196
9bac
9980
1199
4be8
11b6
5a0a
6965
1175
d880
f07c
bb20
d0be
ff71
bb15
c479
11df
82c4
115d
6f01
39f8
50e8
01c0
d3f7
ae83
653e
23d6
f467
11a4
105f
1167
0404
7cff
5403
ad01
3280
119a
112b
ac50
1128
4e80
3231
6231
1450
11d0
b39d
3537
11a0
c1b0
0214
7c83
4d50
7c80
a883
11bc
0a9a
9650
9d50
5183
e550
112e
a0ac
6480
e895
0182
0ae7
8280
c53d
0d50
0a80
c42a
117a
11a8
4301
1168
54ac
4ce8
82de
1166
11d1
b9ac
4a7a
263a
9001
252b
f850
6050
ae01
1112
2950
7461
dc20
6980
1d83
1198
bb4c
6465
1131
7992
ef01
fd50
6904
d780
cf50
dc02
81d2
3ebe
4be9
73b2
11cf
9d83
f905
e706
058e
7380
c2a5
bb4e
ef8a
ce5f
8410
e650
1118
01fc
2883
6b83
0a1d
1117
f350
9880
c528
3b91
2999
d480
bbbf
11aa
3431
114f
62ac
f880
3680
bb6b
5401
d803
6d83
de3d
f090
ee83
f86f
3d83
4c9a
7d39
cb80
11a7
1192
a47a
d950
9690
83be
1119
55fd
3433
112a
112f
3350
4483
d280
3180
bb16
4de8
86fa
1197
2b83
111a
2d83
55fe
6683
010b
caf4
5f50
7997
6179
a850
9990
c9ef
1123
e922
323d
df50
102e
305c
d501
119f
0223
0406
5b83
ce50
11a5
647d
7986
1129
1750
706c
ae80
ba83
111b
7994
2250
115b
6b80
445c
6674
1115
4350
36ac
d9d1
170a
6e2b
55ac
11a9
08e9
5501
1114
1f15
1161
50e3
80ac
7d83
b450
6f83
b280
4878
119b
fc49
7101
9c8b
dacf
db30
ed50
11b9
111d
eb28
119e
9050
93ac
bcac
ac01
16be
312e
0aaf
10b0
f501
2853
11a1
7065
04dc
4a83
e914
a87f
7ed7
5b88
1113
03d1
6e08
d801
f780
0a24
d458
1d21
cc80
2e08
ff50
af01
5616
8750
5c93
6f6c
1172
11a3
2c50
0980
1d69
55fc
1127
0350
bb17
bb94
bb95
3644
1aac
6eb6
9070
7982
d9ce
d180
8416
5583
11a2
1350
119c
bbb3
dd01
1155
1122
2980
862a
7950
1885
8201
1160
bb30
0a0f
acac
6f03
3a50
7150
7783
c880
8880
1b50
5070
5483
6f63
dd83
cea8
1116
1037
6d80
ea53
0271
0af3
105b
0276
d101
4f52
23ec
11cd
0c83
5980
5b95
7988
80ba
4250
3783
6883
f58b
76ac
1f73
cd50
5ba6
7b50
e880
1b80
118b
f601
e850
c083
0a5d
3f46
3132
115e
ee50
3f50
f583
da50
2b50
10b7
4249
1157
48c7
d56e
1191
0b90
11b5
d46c
9a90
3880
1177
11ce
1159
a592
bd94
111c
31e0
6483
0277
e4ca
32ac
0460
8f50
1156
11b4
6233
b850
f150
0583
3430
2450
e755
7f80
bc83
115f
1cf6
115a
187f
d283
7001
d650
0a6e
10d4
c30f
1170
1918
0a2c
7e50
0a8e
6650
5886
7333
a487
2a83
5bc7
11b8
bb67
dcac
b380
1380
50ac
9480
1050
8cac
6280
111f
8d50
11ba
a1c5
9590
dd6e
db50
3262
11b0
3a83
3d01
3139
502f
9580
be50
7a56
b980
646f
bbfb
8f01
a550
7183
11b7
798c
3a73
1176
bb7f
116d
ea54
7350
dc31
f783
36e0
11af
e896
05ae
f7ac
0183
578b
11cc
11b2
0a37
6501
bb78
ea50
4083
0279
116e
fb0d
5365
111e
1163
1173
5c80
1c50
a383
ed83
bbb5
0376
7e80
3a31
0bac
6f38
5b80
4383
1188
1187
bbb8
6950
6472
d783
84ac
9f6e
0e50
8950
b950
3e50
ac37
024a
2906
0332
3a30
1083
11ae
7ae0
dba1
1568
c3a9
1158
3e0a
4344
56d1
5950
116a
6580
3766
37a4
4f01
6f64
ccac
0ac0
2350
11b1
1165
d350
5f15
1162
8b50
ec80
61ac
42a3
6f22
156a
116c
4253
e280
9783
6383
d450
6083
cce8
11c1
1022
a7ac
5301
9de6
25ac
11b3
6bcb
1182
8783
a480
6183
115c
d483
80ad
6812
3050
bb2c
05aa
caac
11bb
4b50
1483
fffe
28e8
1178
7f50
6c83
1152
4ca0
993a
0236
1f86
6380
1f80
2f50
a40c
0380
e2fb
0268
6134
3472
1906
e980
4b83
bb59
1480
8e80
2f31
e501
e450
4e83
e383
db83
1602
8c50
3980
2bac
3234
116f
fc83
1a83
072d
320a
3eea
6e7d
c750
1181
6e64
b4ac
118e
df90
ac02
1550
b81d
c290
3130
d47a
0331
0b80
1184
f250
2683
7985
118c
a4b3
1174
a901
ce80
bb31
dc1f
3983
dc21
42e6
11c5
118d
01ca
1850
b880
1164
5d80
0e83
1950
6d61
edf5
1189
4c80
8383
11be
fb50
1572
9b90
5e80
d802
663b
4850
c383
7b83
8e50
7b03
f402
6469
0252
3937
4a80
3850
3239
4080
4580
d380
eb83
6672
9950
5d50
6f6b
ec83
f9a1
c376
9380
0a21
1820
e780
4646
ce83
19cd
dc5e
b283
90ac
6f1a
03fe
395c
a283
f382
e7ac
0245
8983
1154
0a4c
f450
7343
1153
dc5f
ff90
662b
cb83
1e83
f883
da4d
1346
3c83
efac
a583
0490
fa50
ac39
1185
cfac
eb80
d980
8742
7cb2
696f
6f74
0222
6283
e783
2183
fe83
3469
5c10
5b31
43a1
11c8
3580
8e85
4b80
f183
dc5c
c550
f483
9fe2
2b80
bb8e
b22e
9a83
3484
d0ac
bb2e
1583
5b29
60ac
7473
34c0
118f
c950
2280
3150
4d5f
116b
10b1
11c3
6f06
5e50
e083
69ac
f550
2e80
7683
eeac
de90
3339
16a9
6983
01cf
9b50
5b89
0ff0
1605
5e83
ef1f
081c
da83
8183
8a50
496d
3238
5f83
ab80
4a9a
458c
3383
bb93
24af
e898
cf83
8eac
6478
0de3
021a
0883
6d42
2015
2501
e680
056b
52ac
0cd8
736f
2f80
24b0
9083
1c80
fd80
5383
0816
ff11
77ac
ad80
0470
bb8d
f455
f680
5066
b2bf
dd50
fb14
6f18
ceac
117b
6f0a
e897
bb3e
5883
7583
037c
37cf
11bd
01d2
50b2
11bf
7883
0269
6639
07ac
55fb
b710
1580
be83
0272
fa83
7501
0a1c
05af
1383
7dce
05c3
9183
302c
0256
3c57
a483
65fe
3e83
2808
e283
0c01
3a80
0d80
6dd7
8480
d383
90f4
798a
b35b
2083
3ade
0275
056a
153d
3bac
f750
fb80
6561
bb0e
2363
f983
db90
6a50
8883
dc22
5fd8
c483
cbca
3583
9550
7996
be80
1014
81dd
4283
9d80
ea80
cc50
e3ff
0d83
bf80
95ac
e883
11c2
1250
5983
cf80
88e7
312c
1c83
65e6
11c6
4f44
9383
b083
a083
7083
0249
d883
8101
9883
a3ac
861a
79ac
6b6e
5ce8
32c0
7e7e
8c83
026a
e92b
8e83
5004
0b83
2483
11c7
7064
7006
05b4
b883
e7e0
7261
ff83
5868
e483
2032
3cac
8380
9e80
4783
6f10
626c
9e83
b183
11cb
c201
6262
a6ac
7266
2c83
535b
ac7d
5244
dc99
437c
3650
4265
89de
7e83
e683
1a80
c380
50fe
c680
11c4
fb83
7483
5c83
5006
f083
0160
bf50
3683
4d39
d683
636e
8c05
b383
d083
dcf0
4c83
f338
0dbf
8283
a450
d183
0580
3083
bb0a
ab46
5480
b483
2480
de80
11c9
4128
0783
6880
8483
8083
1283
6777
4854
11ca
c001
3435
f6cd
e899
4583
3131
5280
4950
3883
9c83
4d83
2c80
ad50
7552
3a7a
ec99
47e8
8d83
4fe8
4683
7993
07e9
6401
a101
4983
f050
dcf2
7270
5601
0e80
4d80
fa35
dd55
60b5
c580
0273
d983
b750
7773
2888
d405
0a55
e983
4643
3031
1650
70e6
0137
2e83
0290
6f08
8583
a350
d850
e001
0a35
c583
bf83
18ff
6d68
c683
1049
a4ac
7347
0af2
786f
9483
7c89
a650
9c90
24b3
b25b
dc39
4b70
f383
d583
6132
3405
1cd5
fc80
1883
1683
9583
6e48
9c50
6a83
a980
574f
e090
2e31
798d
3434
e19f
5b53
8b80
7283
2002
df83
2f83
5a01
a001
020a
e183
8683
322e
9780
7879
9150
aa83
34a0
6461
de83
dcf3
4a89
2150
083c
fa92
5180
ae41
745f
34ea
dc0a
c883
cb81
b7ba
1680
be01
4aac
1a56
3b83
0a10
310d
9280
b683
703a
2780
3750
9f83
bbf7
80e4
d878
ecac
7995
0a3b
bb18
503d
f683
a046
4502
798e
bba9
0950
f580
bb22
f5ac
3380
b480
ff70
7276
979d
e350
1041
011c
6f7e
a783
9b80
9a42
bd80
a9c0
173d
722d
6c61
6007
0990
10b2
2908
cc83
0dc0
98ac
9983
f401
6dac
c350
db88
6f7a
58ac
5085
9b83
35be
6369
2c31
a680
8580
e583
a983
3f83
2301
4441
6eaa
0780
520a
2abe
6765
5b28
39ee
eeb3
9d90
1d80
ab83
2783
1f50
44ac
014c
6dc0
0701
42e5
4f83
90cb
0149
d804
0dbe
1018
4445
4745
dd80
1983
c280
4686
c283
4680
1a50
cd80
5bac
bc80
6810
7ad1
4780
2b43
2901
6f71
0801
57ac
6b50
4446
3081
dce4
a8ac
6f7b
ef83
74dc
2583
c890
c11b
6bac
3845
7475
09ac
dced
8680
0803
5680
e950
0428
726f
6f85
0a18
5a8c
89ac
798f
100b
bb8f
07fb
7518
0790
1d50
e201
8a80
c250
d601
9250
fbb6
0a1e
64ae
e8ac
dd1b
6180
95be
c783
9dad
2d80
bb14
7dc6
0e9a
bf90
4c9b
d580
c590
b780
6cc6
3b50
0b50
a580
1280
5273
dcf4
0274
7069
6780
bb19
7204
ad98
b7ac
7901
6c01
7f7e
4576
7608
dce5
c983
aa80
6f32
03ff
0147
f280
7e0a
7a01
32e7
5b2a
af80
a938
2b51
6f70
8365
10b3
d64f
5151
1c01
53ec
dce3
5769
5e29
6c80
e3e0
8510
29b9
6562
6f5f
6f2a
1401
6589
d427
3288
2d01
3906
bc50
746e
dcbe
647e
0a5e
c690
0c5a
c0ac
cdbe
5264
18af
04a0
3ff4
dc29
cd83
14ac
0a1b
3623
5580
524a
3950
0449
9368
bb3f
82dc
bb09
8f96
f960
3201
630a
6175
8fac
5380
b180
3535
4de9
1060
a780
03d8
3531
9e50
1029
55eb
4180
e480
7ae9
9fac
b0a9
bbad
2e50
bb8a
51e8
049d
279c
0a43
0559
0166
dcf5
7d1e
681a
30d4
24f4
a005
8743
3236
50e7
afcc
084d
5f80
6165
0a52
798b
5801
01d6
6b24
6176
bba7
da80
0da0
3b80
8c75
0f84
7984
024b
8805
6a80
6a52
3930
4376
05d2
476f
4cfd
0778
4875
3101
c14b
bbb4
73ee
3570
ca90
78ac
6e93
6f4c
404a
6f3b
fd85
6f3f
6f61
6239
314b
01fd
020c
a9e5
9966
50cb
eb06
2828
a280
6f1b
5209
1932
6f75
6f2b
2a70
a8e8
ad0a
1e79
d204
da90
6f76
5774
1c8a
53a8
94ac
6f62
016c
6546
0155
6661
34ac
ef80
f3ad
6337
3957
f89f
0a17
3337
dc65
352e
695c
75e6
6f7f
306b
b580
7981
ca80
cb01
2202
6cca
2a06
7987
323a
2b4d
4001
64b6
daf3
3a24
4345
d3a8
bb23
e2e9
3384
7eb6
313d
6101
e290
4fcb
5a80
9e90
9a80
bb5d
5351
b30a
c990
6adb
c780
e676
026b
c743
5e05
3432
3e80
0c80
9508
1aa5
6350
c180
0190
81df
ee80
385d
2899
0f0a
12b6
77e9
5252
7301
6f02
6869
b81f
5311
6f4d
19ac
92c0
dab2
17d3
d1d1
53c3
c480
f466
ee09
ed0b
734c
080f
aeac
69ef
d3af
8fce
f6f6
043a
4bac
e380
cb90
28ef
5c44
5046
e35c
7282
e89b
65e3
9c80
2159
2844
7cc4
3532
d1cd
7129
6f47
0484
6e22
e790
6f65
5dac
3780
dafe
bce6
4da1
66cb
2a80
5131
90f7
c529
dc27
e9ac
81fc
6e17
e3ac
6b53
8e08
3465
2030
415c
6e0d
280a
e190
3420
5973
6f7d
024c
7d01
5352
f480
6f5c
c901
3ca3
e622
6f5d
a2ac
12ac
fae2
6e2a
0825
9eac
7c01
10b4
7332
ea01
3097
027a
bb7a
6537
bb8b
5fa5
9390
5471
7b68
9c31
15b3
d1c0
5454
2826
84f4
15f3
3033
6f5a
6fc1
215f
9750
5065
6ef0
1016
7701
3dca
3468
9062
4b0a
5a4a
08ea
2580
ff3a
b2cb
7801
1bac
ab50
706f
2ef9
8701
57e2
4358
e318
ccbe
0136
0a31
7876
4652
d851
5581
31ed
7465
9abf
07a2
870a
45ac
f02d
7cdd
0769
6e21
2201
5a0b
7423
9308
e390
0161
641b
7070
2e30
6e53
d1c2
fd90
3601
e253
a88e
88e5
6df1
7b67
3935
1e4f
a1ac
0a3e
3728
2006
6f4b
1a90
e89c
7ac8
2692
0eac
9290
f301
045f
6f42
4005
33c0
796e
6368
370a
6f4f
ec90
616c
50a8
86ac
6361
2134
1807
42c3
986a
5467
ecf6
5629
4588
284c
6f4e
deeb
7273
d990
0a2a
2601
c150
2510
7331
6f60
ef50
7834
a894
25ec
4f70
385a
3054
6949
0db0
2466
4252
0502
6f45
8725
bfd0
09f4
6f52
e5ef
55a8
7369
7c8a
201c
fd6e
3837
7dc3
e901
13a8
b7bb
4309
91ec
4a12
24b9
d1d2
2e01
0120
1474
6873
7737
756a
1081
69e7
0ae2
e801
dd20
9367
0c7c
6e65
f9ac
6f48
b150
e15f
e180
eabb
6859
dc26
5f7c
3237
4dac
dc32
8350
7132
9d01
0f80
5bca
80c0
facc
d3db
bba1
755a
6f33
2ec4
0b01
e9b0
21b0
cc90
f6ac
0122
322d
6f68
6f46
ac90
6f3c
dc1e
5e2d
dca1
5b87
f634
2ecf
6da0
222c
7657
94df
cbcc
6f3d
dc60
3e01
7fcf
e55f
40ec
6f5b
0adc
7ce7
d46a
0590
920a
93a8
68ac
eace
2aac
acfe
4226
d6ac
2824
0e0a
0179
bc62
b1ac
8d80
34b0
e894
1eba
5759
dc3b
27a9
02c9
8a9a
4c57
7032
0a56
4e4d
6f5e
db64
01b8
fa01
62fd
6da2
8821
42bb
6f53
3901
7c36
e6ac
64eb
9cc7
bec9
7274
b1cb
ac0a
305a
28a9
d6e9
bbaa
a131
f403
4973
dc08
adb9
b2c0
2423
6f49
176d
f5dc
88ac
a3c5
b792
78a0
469b
e48f
e3e6
514e
40ac
dc28
f390
46e8
4a0b
1579
6f2d
3c91
3243
0a46
c490
5b27
ca9a
e690
1608
0c90
d890
1553
c6ae
a601
2909
da0a
d484
37c7
cb5b
3c2f
6cc2
2ff0
d436
3ad2
01e6
6874
9be4
0ace
1b01
fd36
acdd
b305
3020
d790
01d5
6f59
0a3a
8401
9581
050c
0fef
ac09
f693
4cac
6421
2857
4101
3138
afc1
6f56
0251
3a75
4380
dc95
e3c1
322c
200a
dbee
6aad
6a4a
4868
5d7d
dfd1
9e1b
f001
87ac
7562
0119
6f4a
2d20
f405
6f6a
b123
5b8a
0a4a
6f58
817c
151b
0465
28ea
6f29
f9aa
a4d8
b0d2
015e
3731
0dad
0463
0a16
01be
9ddb
486f
d551
dc09
92ac
eacc
1817
6f2c
1d01
6131
f028
70a3
6f55
bb0f
760d
69c6
b2ac
2841
bb2d
d59a
bba6
5caf
6f44
2328
6f69
94b9
220a
6f1e
6f51
3832
0bec
03e3
fc90
bb7c
2222
5fac
ad0e
e5d3
7b07
3a01
5b90
81de
3eb1
4d30
b5ac
31a3
6f57
2b7b
2865
4876
5aac
876e
d8fa
97cb
2cc8
ffac
1b57
a552
bb97
0d25
d4ac
142d
7217
6826
beac
dc17
c0fe
0dbd
8de3
3134
04a1
15de
6e3a
7c57
7cad
0118
e90b
e159
d3ff
f66d
dc1d
733d
0445
3533
6f41
dc24
0abf
7c3a
070a
0aab
60e8
23e6
2691
3c15
dd6f
c601
0257
c190
fd24
0390
81c8
d6a5
047e
6f7c
5fa6
34b5
3215
6da1
d1ec
b95e
3f2f
2e63
bbbb
8dac
3a26
6f34
6865
2035
b92b
e976
cbcd
6f17
3034
31d6
3eac
3c0a
6011
8aac
d3de
df80
2270
bb4d
0a44
d5ac
2164
ad14
ddcc
f612
b342
6f54
8901
7845
e93c
0961
ea75
4fac
d291
aa34
dd02
606b
5420
6f14
0dc1
6201
0a23
49ac
6f13
10b5
fb90
5525
7fff
192b
ff58
ce90
dc66
3202
e590
1224
e8f6
8a04
8531
bb27
9f90
ac08
10b6
e4ac
d43e
dc36
1038
e00a
0a4d
95e6
7090
bb88
4060
6473
35c0
1084
e827
fcfc
72c4
6f1d
a5a8
6f43
e890
0a8c
5733
a9c5
3284
47ac
255b
440a
5808
646c
436f
7b7d
3fac
f8d1
681b
d0a7
dc97
acad
a7fa
34af
4f43
1616
70a5
cef4
331c
2ec8
e490
3334
d46b
6269
686f
6432
5f4d
5509
16d4
4e01
c347
8af3
e618
6522
22bc
872a
1701
bb35
3823
c86d
9212
3190
3336
1230
3436
01d1
6f21
d301
b901
ad71
bb46
34b2
0af1
a5ac
47c7
7e9a
9c17
0466
d3e7
0474
3037
aff0
dc2f
5014
fb01
74c0
f992
101a
be96
027e
bb99
dc1b
4d01
278c
6f24
99ac
dc2e
3943
6e11
2038
7878
045d
dc6b
bb8c
fad0
5f69
18ae
cf4f
cd90
d1e0
dc37
013c
2508
dcb6
8258
f0ea
e75f
db4b
d5ae
31c0
f89e
012c
6142
dc62
35ac
7877
345d
6f30
4bcf
3331
46dc
e548
b639
c2ac
dbe1
0da2
a80a
7323
22d8
a80c
dc2d
daac
d1c1
6f23
45c8
c513
506f
8a08
1036
092a
a00d
dc23
6f09
3d02
2c42
0811
6f31
fa90
0865
1c31
dcad
c863
a746
285c
6021
9dac
503e
0130
acd9
2778
34b1
59ac
4b49
6f2f
0db6
5176
dc68
ac5d
6f3e
3539
652d
e8a0
63a2
3301
dc14
dcff
010c
acb9
103e
6f0f
b3d3
6402
342c
70a4
dc0d
6f27
6f04
2063
2873
1c28
5e03
644b
fa30
5415
3203
6f0c
2b7a
4c0a
ef90
ef44
2276
f1eb
bb02
56ac
dc0c
fc64
e5ee
dc79
228d
49c5
a471
43d3
240a
9a3e
6308
6d76
756e
dd2e
d8ee
0479
202a
2207
6238
3fd3
dc54
6f1c
10c0
0482
afae
ad0d
0496
bb3d
c111
d901
8208
0a33
f667
23ee
7622
d6c8
d001
48f0
da01
45ea
2814
94d9
dc64
f790
5be8
7162
0408
4871
7a8e
ac4f
dc63
49e9
7469
484a
6811
fe11
6f07
0aaa
4225
dc25
dc72
0138
df29
0a9e
6f16
29e0
83d2
58f8
52e8
dc1a
7730
5bc3
0234
ed90
9e57
89dc
dc3a
79c4
7afc
a380
d16d
514c
b75c
f590
6f05
dc11
8171
51ac
b788
dc5b
adac
2829
1574
6f2e
3737
8d84
31ac
d3ce
2268
0473
40e9
6d90
282e
acd2
1034
6d89
bf60
dc16
0133
7ed6
e65d
d3ac
6f28
ea41
3188
e2a8
c9ac
5890
28e6
4759
16df
434e
4064
712c
6f0b
acda
75fd
6902
3b8d
f882
574a
7ee5
2eae
2822
7403
f302
4479
c4dd
ff18
a090
6f3a
b701
cead
d590
4e45
0232
5a52
bec8
5211
6563
7669
013d
f730
5190
057e
ee01
d494
3831
6442
1021
a7fd
bb76
5d95
7618
2cbe
5002
7365
dca0
281f
4a45
8601
4a0a
3038
6a7a
348e
0c9e
dc12
e2a4
667a
101b
2701
6046
cb59
32a1
3290
38ac
0472
d723
d50c
fe33
6f19
4a47
046a
aef1
3285
303a
d9b3
9460
a48e
2890
ff44
6f37
1fac
7b22
d975
ab70
27ac
7605
315c
2048
02b6
d690
3736
5b8b
6f12
887d
76c9
7b60
2e0a
dc98
e979
2612
327e
587a
1726
e401
dc15
7fac
a7fb
8368
300d
16ff
4b62
dc34
7264
f029
5026
2842
f190
1e90
2878
88d4
dc1c
596e
67a1
4b01
3294
3437
dc2a
153a
0a0d
6f0e
3aac
dce2
5090
807e
5cb6
0a0c
340a
0254
7835
bb4b
6638
b288
1301
6971
ac93
b9e8
7ed8
7d0a
6f15
7875
e95c
d841
3417
c701
01bd
454a
10eb
5045
280d
6e7f
d7ac
af15
9abe
2264
ee90
4f57
5fa7
6e67
3227
045b
102b
efbf
6f1f
6e56
2a4e
ce33
5b0a
6964
1028
cc3f
ef0a
acc9
dcfb
d252
0e15
e990
c101
6174
acb6
96a2
5248
5e01
93c0
dd39
bb87
282b
c090
5058
0455
e89d
16b6
a7f8
dc61
9801
e242
2004
ba8b
0434
e301
dc35
8d0a
1f7b
021e
09b3
50bb
2846
dc44
5ed6
5258
3490
aa2d
246e
cdac
0475
671f
28cb
017a
6f90
f290
088c
dc19
dca7
0535
acb0
4018
3279
dc2c
b461
e058
dc5a
3402
7336
5121
0b2a
bbb9
3224
500a
616e
324e
2861
2821
d490
aa01
1e56
1790
9ccf
df77
6f26
3738
8854
174c
260a
b520
0153
8f14
df01
ac5c
dc6d
1019
046d
5b3b
27a4
8790
2862
83b9
ff2d
6e1b
dc0e
5628
34b3
dc9c
040b
7fef
2e7f
691d
04fa
048c
4109
0a45
0965
282a
3226
d4c1
3932
3225
023a
6f25
0da9
0d3b
99cc
280b
e52b
7630
03fc
022e
4d53
4c45
1289
6e75
8b84
6e70
4a02
6261
4e69
dc2b
4148
0a47
a190
047d
4547
0177
a701
a989
0d9f
7288
8645
dc0f
d02b
4f63
d1eb
2c90
0233
2872
dc6a
f990
de1e
bd0a
dc05
59e0
7a89
013f
be90
de6d
5a23
0442
6504
3839
c363
291f
39ac
4cb4
ffc3
4c6f
0403
785c
5876
aca9
0146
6952
d32d
508b
24b1
eb90
dbac
7af1
3534
dc73
4224
1e89
9db6
0462
d9a3
dc7a
2866
b9d4
880a
0113
280c
ac5e
0a5f
b394
e93b
022d
43a2
2a8a
4058
741f
327a
29d0
8523
95f2
107e
3335
420a
b4ab
4665
3732
1525
ea90
0a22
faa8
048b
89d9
3247
613e
5765
db81
0d90
9638
1c77
d14a
dc10
d259
3d22
dc13
057c
05c0
baca
d7a9
6961
3665
0471
445f
180a
0a53
904c
34be
ee06
dce0
80c5
d523
3062
3443
0c07
ceb2
28ad
b801
6701
ad09
5345
7075
dc42
cfc7
cf04
8e90
dc74
2c01
daba
d649
278d
763b
acd1
5346
d290
d2ac
4e0a
aa0a
10dc
8b9c
0d96
1b56
ec93
1503
bb7b
288e
2a20
0313
1f74
4346
f288
2864
dc58
2d08
5a0d
5fa0
8516
204d
0893
dcb7
18fd
dce8
4a3a
5059
040a
80d1
ef22
89da
bb7d
dc18
fea7
bb9f
f890
7071
9e3b
5175
8e14
c366
dc3d
4701
e893
28c6
3036
3ad8
55e9
043b
9fdc
8002
0890
d179
047a
497d
dc0b
7a2d
04e0
c419
dcd1
270a
7a36
0a2b
ad0b
046f
1604
048d
7670
dcef
dccc
3653
046b
0107
3834
4c9e
0419
6531
ac59
b2f0
abac
c126
340d
8501
550a
5a0e
7079
25e3
33d7
3dc5
a805
bb29
ec22
6659
3264
6c75
9821
cefc
f690
4254
f31b
2881
0db1
5a10
6fd4
2dc3
656d
670d
b730
843c
b677
ac92
afa0
6e6f
dc3e
2393
24fa
076c
e3fc
512b
28e1
3663
6da6
7dd6
32d7
dc59
89ad
bb10
2d63
32ad
0459
8cfe
1bde
2092
0ac2
024d
226e
dc4d
acd3
1f84
f0b7
1023
023f
6343
3018
0723
1a0a
ac9b
8301
0534
d701
6138
0a3d
02ad
43af
6137
8b85
3039
bfdb
e90a
dc41
3242
46bc
58cd
3536
4501
5a0f
3429
3204
ac6c
cadb
bb51
047c
325d
3272
0a66
dc47
dcaf
d37c
0494
f490
bb11
3220
3cd6
aca8
72b6
c13d
7322
43e8
052f
6cc0
1f01
dc06
73e6
7534
5dff
fe31
6d03
3214
a018
ab01
04b9
0d21
01bf
9910
bb1d
dc57
197f
dc03
43e7
172d
7779
dc6c
4420
363f
d1ea
ac12
ec97
3254
6d6d
80c2
3f8d
0464
ac0b
5a8d
dc69
d858
302b
a4e9
09b6
2891
326b
dc6e
0308
0b2b
5b1d
3222
dc33
d390
88ec
dcfa
42d6
2beb
5d01
0243
f075
6ecb
3701
0242
3639
0452
2558
5a09
506e
75ac
2d31
5d86
1aea
0a13
a123
0112
3268
dc75
7f3b
50ff
3221
74cf
ac57
50f0
3da4
19e2
3265
282d
95d0
6c6f
0a0b
dc56
ddac
28ae
dccb
2fb2
8855
e5ed
049c
2802
bdac
938f
61b7
919a
c7ac
3638
dce9
0763
5751
e58a
0447
6c06
dc04
59b6
3136
acc1
e5e9
de46
a105
5d3b
a608
7eac
0481
957f
dc70
9121
919b
600a
0da4
aca3
4449
32fa
a7fe
443e
465a
a98f
2f01
5d0a
17c0
4664
18fb
0d9e
0436
4f2c
c801
27c3
45b1
023b
dc71
74a3
0468
04b5
bb74
34a8
f19a
513f
dc38
6e6e
e101
5354
74f1
782d
5979
70ad
b7ad
1a94
0aa6
607d
dc3c
03f7
ac1b
c4d7
7c76
360a
c214
5a53
6ed8
3263
6872
344a
5647
15b4
5064
dc6f
a7f9
6875
408c
f823
8f90
760a
bf1d
f8c8
5859
0498
e606
c10c
dc84
1d47
2e32
0daf
6d6a
eb87
6370
0157
bb64
7d89
582d
dc3f
343a
0476
524b
3253
645f
edac
a6e9
d360
28bb
8859
e9ad
6437
ac47
326a
6df2
ac28
3939
283b
6699
6e79
01e3
b47c
4c02
1288
3223
320d
5936
bb3b
5bcb
d3dd
dc87
5992
89e3
1e01
f9b8
dc53
0a30
cada
049e
0a14
5b14
ff74
d3c3
1a93
cd27
01a7
3e7f
dc4f
0924
b3c4
5f90
640a
624a
02f6
f5b3
a401
ee9d
d616
2f57
dc51
634e
5b5b
e5ec
10c6
cf90
f424
766f
c805
2d62
044e
3276
7911
663a
7ffc
d17a
89db
b63d
e6be
3016
0ad3
3c24
e65c
6574
03ea
280e
103c
dc4e
ceb0
3836
ba8d
70ed
919d
a526
2a4b
dcea
dc7d
0dc3
398e
0239
1e84
d617
b833
15b6
bb08
7d85
96b8
242e
d090
6f8a
3259
3269
f939
cb88
e0f3
0488
0467
bb0b
600d
f1a1
6263
0439
f24f
dcb1
046c
3003
bb3c
08e6
dc43
024f
0dc2
507f
44a6
0478
2090
7570
6485
6ea3
1a95
b2ad
c5b0
5fc4
743a
0db7
3205
ac29
d860
a3a2
055b
f558
16c1
0493
ad29
bbb0
dc55
afad
7af8
f141
0288
216b
7179
045c
28b3
0156
200f
0307
caf5
dccf
049f
0418
7998
2849
32fb
69f0
0444
8e4c
2825
7b70
ac79
5a11
4f54
dcfd
28ec
0451
1ef1
ac4d
50ad
319d
0dc9
324d
7164
a134
327d
416c
16b3
c253
570a
c305
dcfc
047f
048f
321c
ac17
cc94
6fa1
0220
89d8
d930
172a
6dad
9b65
041a
7831
cf38
bb75
acb8
bf4a
0123
cad9
aca0
0430
6502
a384
f1ff
513b
6db6
f0a4
048a
a7fc
161a
3a57
dcd0
0dba
3270
0da1
3463
dcca
09e8
323b
32b6
3d39
01f8
8af5
3c14
6df3
2370
5d03
28eb
a011
0dc8
7cf1
995c
c4b9
23d7
127f
045a
6819
c002
04df
325b
326f
bb6a
0da6
dcb0
59ec
16b2
0da8
7ed4
6241
2a4f
5427
acff
1035
a211
d190
befa
d5b6
4bbf
b401
45e8
043c
6b62
acb4
968a
01e7
bb92
5ac3
3958
aa6f
3461
1a66
043d
6d0a
1a92
aca7
103d
281e
d842
0f90
2d07
223e
f193
80c4
232c
1e48
a7f6
285d
7777
53e8
dcc9
dc94
dcdc
174a
128c
6364
dc45
89df
0492
514f
f04e
0469
6b3b
4f2e
454f
3229
2205
045e
b125
a7f7
035d
3865
326d
0485
016d
2786
8ee5
120a
3863
acab
2158
044d
aad0
34a5
2879
0ab6
dc96
dce7
f9ab
cad8
dcd6
74b2
0da7
28a3
3739
ac2d
acb2
0491
e65f
8404
6fad
041b
accf
049a
dcb5
765d
9965
0f0d
7e24
5243
a90a
8aae
0486
321a
aca6
ceb3
b106
0435
02b8
6173
7430
d495
bb6c
bb37
0da3
dcdf
4c41
0495
8ecc
9f6f
dcf8
7096
3207
bef9
64ef
e0ad
993b
783b
ac4e
81fe
1286
ac6a
32e6
ac5b
60ad
ff0b
7d4d
daea
0443
0448
72b9
043e
086a
324a
42bc
77be
b8b4
1b17
45a0
796f
acde
0456
011b
32eb
e1a5
4242
50e5
fe0a
5bcf
dcec
128a
a70e
6821
34a9
321d
28d1
02ff
1a91
fe30
03e9
dc4a
34d1
67f0
0116
beb8
3547
6d6c
3631
702d
511c
dc88
89e0
048e
6979
6dce
5ce1
40df
8db9
dcde
0188
6d5b
c1b4
0244
3501
6290
0a48
3743
28c7
3561
047b
908e
942a
2804
769c
2069
3a0a
fcbf
fe34
0fdf
ee85
f544
f801
5d2c
128b
6984
2817
6c44
5b12
2303
dcdd
acb1
757a
aca4
dc7f
dcb2
d95a
043f
18c9
0da5
049b
023e
0bb6
3267
a301
2809
3217
0db5
0529
a4d1
dc52
fe32
dc7e
d9fd
9967
bb2a
0497
ac68
6155
dcc7
c1d9
bb98
78ad
0db8
4544
03f6
961d
04a3
82dd
83dc
d60a
ff2e
5acb
0e5f
0dc5
919c
60ed
8e99
0dbc
0daa
350a
0dae
8f63
65c5
22d9
dcdb
e75d
677e
a6f5
2871
8602
32a2
1026
0db4
ff2c
044c
5290
0db2
0131
dc76
fc6e
a501
95d1
acce
0499
58e8
0866
0218
0dc7
0533
34ad
acfc
6d2f
6d46
03f5
4590
998e
dc4c
6d74
6d9f
1d14
620a
7248
03be
44a5
e670
8ca8
32c8
9294
4490
7216
2838
18e3
9b63
34e6
473d
9e01
0dab
1e65
4af6
5b02
dcc2
919e
17be
b2f1
ac0d
324f
dce1
0543
7ffb
dca5
dcbb
95cf
7ffd
8ae9
150a
3482
3271
bb13
55b6
6662
714a
7d84
fcc0
2886
3165
2053
7602
0ad8
3545
0320
3244
0191
dc46
61ad
89cd
fd75
35d8
dcd7
0454
6d49
7b90
28e5
dc7b
326c
81ff
db01
d743
6565
0dbb
3635
a2d0
1287
34e3
dc7c
284e
6431
3ac7
6ed2
b242
e0f4
acf9
ac82
6232
62ad
b65d
f9a0
7931
dcc8
3633
dcd5
80cb
2815
2d39
9938
744f
0a9f
dcda
c0c3
a133
dc8b
de01
6167
e89e
32f2
8f82
dcbf
320c
a3de
2295
285f
027f
4152
26e9
f709
414c
0441
4afc
e1c5
0457
391e
6d79
0458
9617
e6e5
8a07
5a12
5124
2803
345f
6e03
acb5
e65e
653a
9ea4
6d36
3462
3ffc
fce5
886a
d042
0431
6f95
3457
3251
6d69
7b66
eb34
ff3f
cacb
dcee
04a2
0978
dca8
ad0c
0a41
3dff
7970
a8b7
dcd8
0367
acfb
0af4
f05d
1c75
ef02
7572
3249
160a
e1eb
801f
5604
3255
1290
02a6
044f
285e
64ce
60eb
0a61
ac13
dc48
db0a
4ac2
c977
21b9
4243
0355
7eb3
2172
4e2d
b4af
7363
2869
3008
324c
8865
01a3
dc9d
ec96
230d
5a90
9190
1a8b
6da7
dc49
e9a1
fbbc
acb7
acae
ceab
6335
ac05
3ad0
0a34
90cc
8873
fa78
2590
aca5
3934
ac9e
e243
6265
ceb4
372c
f23f
327b
bb44
ac7a
01ef
2928
bb69
d4b6
ff0a
5c4a
705e
4901
8c5d
38a8
02f7
dc4b
1f0d
39cb
dcd9
f493
e028
420c
0487
9602
326e
3090
0f63
4d2d
81fd
cad6
8ece
7036
0162
fccc
6479
0dc4
c124
dcba
6dc1
acb3
3625
46d2
4e33
0dc6
5f7d
46a5
dcab
ac99
4ac7
e65b
487f
c4ba
3835
287d
6769
6d2e
72b7
dd29
6fe6
d20a
6595
507c
072b
2d2d
6d91
3260
5b13
dc77
e8ad
0a25
325f
3ad7
769d
dcf9
7364
93b9
acfd
56e8
4d90
71e9
bd01
5fcb
f89c
173b
d1d3
3275
183b
ac14
3514
5051
dceb
286c
dcd4
bb45
dc8f
34d8
6d58
3208
017d
245b
3286
2839
3538
67bf
bb41
03ee
32d6
7098
f253
2171
6fce
dcf6
5a08
fe29
07fd
6564
02b2
3466
103b
8612
5024
28e7
8872
325c
37d1
3c13
46c0
dca9
28a0
041c
8f15
ac60
1e0a
9875
32d8
9b68
14a9
01f4
0282
9842
c30a
f8a0
dcb9
9b64
7889
a4f2
70a2
64b8
6f81
9a06
3590
e041
ac04
17da
0446
8f0a
32f3
ee0a
4a20
809f
506d
2859
69e8
34c8
0489
7206
793a
322b
cad7
647f
d064
f1d7
2dc6
dc78
3273
887e
c4b7
55fa
54b9
0e90
c603
2860
3a69
74c7
bba8
ac56
5ad3
6b0a
3257
023c
146b
8b01
dc82
0ab2
349e
34b6
2def
72ba
0ad1
1a8c
e8e5
3164
3c08
4654
2d35
63ad
dcf1
4290
01ed
e0a6
16b5
dcc4
0c24
015a
dcae
2c24
1a8a
b49c
3449
4cb9
0ad4
09b5
12ad
96d8
dc8d
acaf
bb5f
46a4
610a
ac9f
281c
dcbc
70e9
b819
229d
dd1d
f616
2d53
765f
ac61
da72
b8a2
dcaa
3282
ad60
dcf7
e95b
3274
ac98
44ed
71fe
b465
670a
887c
dccd
09b7
0189
2b01
03fb
9334
e0a1
01b6
3fbd
3219
280f
dd0b
bb65
67be
3211
5048
e7d9
7ae1
77f1
03c3
73ea
f6ce
28ee
acf3
ac91
2816
2811
6beb
dc8c
ac69
7306
3d45
e3f9
acaa
f5e6
f50a
03d4
0453
a316
1796
c40a
8e0a
4513
5917
2d90
3fd2
6d37
3005
18c8
8db8
0284
6fd1
530a
bb49
7203
7cae
600b
500d
769e
4820
dc86
eb01
1dba
dc92
e370
286d
acbd
424e
5a5b
726e
9618
10c3
2823
72bb
28d4
f422
c644
5302
a055
352c
18ca
128d
3228
4259
0317
17b6
430a
a290
0158
9794
0ab3
acf8
6970
32a4
acf0
70a1
ac66
9333
504d
71fd
d401
34f3
993d
8306
f53a
8e15
0a36
9c72
a20c
329d
09f2
6fb6
10dd
acc7
3c12
bba3
0170
090a
5b3c
eeb4
b718
044b
ac24
170f
5fc5
6490
3256
681c
dc8a
3846
5734
2896
28e0
879d
50ec
48a3
4843
f557
0a2d
1f85
e459
dca2
4c90
e37a
8716
b601
32c4
aca2
dcbd
6d5d
23d5
d74a
281a
4a90
02af
89e2
3951
9b67
dcb8
0ada
9b66
f9ad
3213
e721
3035
9b69
acbc
6ef1
e24d
f93d
3293
02b3
d1e9
4797
bf95
f60a
4aec
eb4a
765e
59b5
29b8
dcd3
1e14
dca4
5b19
6353
9120
be34
04dd
3277
e60a
390c
dcb4
6fe9
a590
6dd6
287e
ac1a
6c51
7dd7
eebb
dc91
990a
0151
c5be
1e99
4c46
bd90
a536
ace0
5b81
505e
6390
a04e
7590
3479
1545
02ab
fefa
acf7
6526
3278
acdf
7f23
334f
5b0d
3209
c4bb
8808
730a
abef
0432
6d30
329a
0424
32d1
5bad
6dc7
28ff
9332
d70a
fc0a
bb55
5c7a
282c
2847
5fc6
5b70
325a
350b
a20f
5b52
0230
2289
950a
a210
0a94
6455
ac2e
ac6e
47f1
9cc6
1f1d
3145
4348
f970
fcf6
38ba
fa6e
28e4
32cc
6d48
322a
395a
9eb2
44a4
28e9
df4f
ac16
dcce
0c8c
b0aa
cac3
32ec
3414
9f0a
7cc1
76f1
aeb1
0ae3
9582
942d
16b4
5d90
ace1
ac7f
3b30
2870
281d
bb47
f701
dc8e
80ca
1490
e9da
67a0
0a2e
3eaa
23be
6d62
3d08
ac30
8dff
4c9c
287a
1f0a
6d4d
ac6b
e93d
cdc1
bb73
5f9f
28b4
3363
2a0a
5137
d266
e40a
ff8f
eaad
505c
3460
02fc
bb4f
0b0a
321f
1d0a
ac94
5a54
04a5
4429
6d47
726b
dcc0
dcc6
4541
5061
79f1
286f
ac6d
28b9
f0ad
32de
22de
140a
4a1b
5dcb
3454
60e1
0258
228a
acd5
5390
2807
8990
0828
872b
4d0a
88ea
bc85
4735
9e05
dc85
dc9e
3248
5c90
7ee9
44b6
e7d8
1523
89b2
18fc
fe3b
0433
dcb3
bb2f
acd6
fe20
02bf
92a4
4099
ac2f
4298
10b8
322f
9090
78f1
3833
40be
c6d2
43a3
0176
28d5
ac9d
0afe
1690
8b0a
ace6
e5e6
0253
70c9
d8e0
721a
bb60
eb7a
04a4
acf5
300a
210a
eb97
344d
4c98
90d1
22bd
6ced
3362
04f4
028d
5c07
813c
e952
0902
fd52
2820
6fb4
f2c1
6592
5166
fced
28e2
b20a
087f
8890
72b8
3119
042c
f1fd
5b91
dc93
4979
2858
3403
285b
7830
2266
5e49
283c
59f9
7424
34c7
dca3
05f9
3047
5e0a
bb6e
341e
ceaf
e89f
4b90
156c
6d3b
0429
f1d1
80cc
320b
3210
34b9
6ff1
3890
6d6f
2011
2830
0f14
fa08
f5fe
3de8
faf0
321e
a4c1
ac96
ac7b
2f69
040d
2439
3216
f2c3
65e8
6c4b
f99e
d65f
6730
2b0a
04b0
022a
d90a
ce0a
f254
ce5a
23a7
94ad
f2ad
04b6
fd54
0c08
22d7
9208
8ecd
028c
ba89
0255
323f
6d73
af29
c162
1a42
02ee
9cb6
ea3a
59f8
7ba3
752e
d91a
fd53
ac2b
3245
016e
4c6e
4c4f
89e1
2253
3c90
acbb
16d1
7470
3218
fcef
4e90
286a
98fb
bc90
5bd6
a214
784a
59e1
d843
6aff
3a5b
645e
ac9c
65ef
1775
1def
f055
50d1
4e3a
2190
4c99
c061
24d2
b30c
b972
4e54
3828
9f01
32a6
ace9
fcc1
877a
507d
3475
437d
343b
dcd2
911f
32a9
6d8a
33ff
c368
6634
ac20
5049
01cc
6ee9
9b79
1901
0af8
a064
355b
ac42
16c2
5041
4090
168c
3252
64b7
b122
0fe9
b570
a890
6d75
a50a
07f4
01ad
ac4c
ac2c
6e6a
128e
232d
0ecd
4dab
3961
363a
7b61
8816
a19a
7f90
9864
9ceb
fcfd
32e2
283d
0348
10c5
0247
a80b
bb6d
3936
c645
2810
fd0a
cd5f
2854
75ff
0a67
acd8
cf0c
ace2
10fd
9331
6d7a
e572
6170
acd4
485b
6eb5
52d7
bb66
ac06
2286
0bcb
dcc5
2905
2a79
7495
7cab
802b
f1f9
2051
a20e
ba0a
ac95
055d
4d45
534d
042d
6d4e
5b49
9fbf
32ea
52cf
6135
944b
e8dc
0a86
289d
0a8f
080e
07d4
44e8
af9e
ac54
7595
6dde
0aec
5069
0e9b
ec9a
4534
2851
1ded
4fad
329f
8dd3
a7e7
b55b
2942
325e
df14
5cf9
2293
c8cd
b309
1e05
ca0a
36d1
750a
2d75
283f
6178
986c
d414
acc6
2b70
ac88
d10a
6279
02bd
6d4f
c438
104c
5079
3d20
01e9
3a79
5a70
89d5
0ae6
ac71
3df3
ea03
b2a9
32b9
1a0c
44a3
a60a
dc9f
05a6
622b
0259
8702
2832
0ad9
ac11
9701
4553
ac8b
e277
0414
a690
e6ea
efbe
0195
6010
50b5
2043
3830
6c66
10f9
b7d1
320f
74ef
81c9
7689
680a
76c1
dc9a
3364
328f
ad61
02c5
5052
301c
28a5
0521
9528
4276
347a
7789
346e
a939
e241
04b4
fadb
f2c2
ac8e
6ca6
45b7
b324
ac84
3b52
344c
2390
416f
8f6c
e7a9
f510
32c6
0c88
e5eb
5b48
7265
0a06
14c2
60b2
8c90
09fa
32c7
f006
2863
fb4b
706e
ddfe
32c5
5e90
3411
6b7a
70b8
e930
dcc1
6a0a
ceb1
fb87
700a
17cd
94c2
2868
4945
3d0a
acd0
0d23
2305
e227
7cb3
98c6
b22d
709d
90e3
07b6
e156
2819
6832
9aa5
ac3a
be0a
ed0a
bed9
281b
0aa5
92a5
ac46
5b5a
a74b
12dc
ac9a
84a0
497e
388e
dd1c
d5ad
f1fa
693b
6665
ac65
dc81
4e34
012e
50ab
7dcf
6b6f
8c74
449b
3a39
cb75
32da
5a17
2003
bed1
f3f5
1bc0
ba72
c759
23ba
bf61
7b0a
916d
d759
1896
42b1
3488
3212
03b0
0a15
a1a5
cfd8
20c4
1e85
e8d1
a9fb
502d
284f
98d9
9c02
343c
17ad
59b8
2eb1
8a0a
f304
7caf
5f56
513c
284d
321b
4dd2
1aec
4558
2169
6632
acc8
7836
783c
ba8c
503b
7c30
344b
e5ea
02e4
6876
ace8
0e42
1d90
4231
ceae
95fc
323e
40c1
6da3
c25b
3d42
222d
0fe6
0867
01e1
c3c2
2836
ac8c
ecff
6555
09e2
f064
4790
ac31
88fc
56d9
e30a
2831
14d1
8d0f
ed3b
050d
6014
e7e5
1c09
9139
327f
c087
21b1
d46d
8ca7
0c8d
6ee7
4a3b
50b6
2a2a
04e4
54ca
a00a
4e46
9841
17b7
28d8
650d
8824
330a
d06d
32db
3470
102a
f70a
ec51
79ad
5071
38a0
2827
ac07
6539
ec94
3632
289c
329b
5b09
1e74
0c31
6924
e928
8dba
3258
3622
a05e
cd01
3445
a20a
c501
f3a5
92a3
0a89
e75e
acf1
e7ba
ac62
0ae1
0a38
846d
286e
8902
1077
64cf
02d8
6c0a
a9c2
e36c
0377
64e3
3464
aca1
1590
b513
0de0
2812
0134
ac2a
c00a
0281
5203
205c
7722
2033
ac38
4029
ac78
3b31
2288
6ef2
ac26
15b8
0f3b
9f9d
6230
e935
287f
f615
acdb
eaff
7d90
c8ea
acf6
ac7c
500c
348d
bdd8
2a02
2961
15ae
ac77
6466
ad81
6fe7
965c
ac34
2064
ad62
6e63
e688
94f3
e657
22da
acba
89e8
0135
0263
547c
348b
92e2
3d2d
6f9d
03f8
3ae4
6467
2436
db1d
4c30
b9cb
5034
c581
bb52
14b9
02c0
c304
04a9
cf63
6dab
32cf
fce6
ac97
731f
fe64
dcc3
5c02
5908
673a
68ea
a790
50e1
f8fc
acf2
8e75
6702
201a
713d
4f77
21ad
2231
2623
56db
74f0
708f
8429
5b2b
d8ad
32f0
3385
1266
6dfc
3442
328d
2c0a
490d
28cf
732d
1d75
096e
34d9
f365
48a4
bb06
6fbe
6590
470a
4aad
42be
0d0f
7611
863b
506c
8027
6d70
6e90
2867
1de5
8b98
a20d
ac63
7c4c
d749
783a
79e9
1f8b
4a64
02ed
03c0
af21
ac81
7c55
c3a8
aceb
a91f
e891
55f9
1576
0178
660a
50c9
5a30
bc84
0224
34bf
426b
d178
0f0c
9207
4362
ba8a
1ca4
b10a
50f5
3416
873b
ca11
eb0a
6374
77ba
328a
1390
04b1
e3ad
34c2
03e6
a390
c8cf
7e89
2588
d17b
58e0
b202
f3e6
666e
69ad
e903
fcf5
b8ad
ba22
afb0
5149
6cae
4042
f3ab
7091
ac5f
f5ee
64ca
fce1
72e9
9efd
3b32
4aca
5b15
4af4
782f
49f1
25cb
01c3
22d6
2843
6d56
0fcf
3474
6556
0ab1
9a44
48a2
15d3
f99f
7e61
1578
32ff
50ee
6090
b90a
cfe8
32ba
467d
2882
ba86
59b7
5020
2428
5291
5bee
5ac2
6264
f270
3931
32a0
3489
ba90
e20a
6b70
328c
68d1
4cfe
e905
6ded
2929
626f
7f44
ab5b
29f4
6978
394a
f203
accc
1c7c
98d7
3181
34ff
03eb
67b3
92e3
32ee
0437
ac35
34c1
0aa7
7342
ab7a
410a
d3dc
5cf3
a1ad
4749
22f4
accb
8ca6
2b5a
aadc
ac27
f36d
63a0
ac85
ac19
b790
5073
308e
a10a
1531
80c3
6012
7073
50ed
3d90
0175
6c9a
eea1
b05a
ebb6
2848
50c1
35af
6eb3
7890
656c
5025
afb1
ac15
59e9
128f
72fb
a8d9
329c
661f
6fab
3292
8784
6169
6d78
2818
43c6
f24a
ac36
cb53
7290
2813
0f08
6fc5
4724
0aba
505d
3db9
5790
88e8
a49e
6761
acf4
4e24
d7b9
32fe
09b4
1b9a
3487
32a5
6102
0a26
6630
ac1d
6d96
34cb
56fb
ddc2
5b99
5e24
366c
806e
1597
ecef
ae8c
310a
790a
7f1e
4d41
900a
3413
4230
ec98
504e
2287
3155
472d
b76c
0a12
5f3b
4248
285a
770a
797d
51c6
c1e5
765c
acbe
d30a
2833
7477
56d3
e2e6
17aa
6d63
b1ad
2be8
5054
e7b3
10c4
6fdd
185b
98da
0a78
709c
95ae
709b
b290
d429
6333
76e9
9870
23f4
1a43
0306
28b2
2856
fef4
b30b
ee6c
f251
1fc6
09e6
343d
424f
9b0a
6d93
32ce
55f7
0ffb
0246
53d0
8090
560a
64de
98d6
acbf
7905
5715
2885
b215
2302
ff37
5d27
18fe
027b
56c8
163b
10b9
500b
450a
6dcf
6fa9
89b1
0f4a
12a0
f423
7825
76ff
f617
820a
7c0a
32d9
e25c
0228
5b03
3120
b924
32f6
ba21
4b64
597f
28f6
d4be
15db
348c
5012
bb81
f48b
6d66
b047
283a
50f9
28aa
ad90
43a0
643a
94e0
3299
32c2
5068
28e3
64df
5013
284b
ac18
25e4
02cc
c288
34a1
7979
4bc6
86dc
6d57
a528
320e
03dc
5063
ac5a
2874
4279
9494
6443
710a
9723
a639
643b
3499
1779
082d
0172
5d44
2360
445e
0392
9267
030b
ac64
6013
fcff
fc4f
ac89
6976
b03b
18fa
0c34
32e1
029e
0a60
1208
ac0e
a905
2dfa
8d60
bb2b
040c
ef34
2941
ac74
298f
3198
2424
0bae
80cd
f40a
0a8d
cea2
9ab5
eae0
0aff
7379
afc8
5130
6148
ac33
130a
20c5
e10a
ace5
4cff
34d6
6d72
2835
ac51
01c6
301f
6fa5
b6e8
55f8
3790
2191
b7da
4124
2d0a
5fd2
5f0a
8b90
32e8
0141
830a
3370
23d9
16c3
460a
6d31
d17f
3802
aff6
cf01
ac87
970a
6124
9907
6fef
ac67
4427
e4ce
6b65
7f0b
3147
acdc
d0e6
390a
0411
6e6c
d5c3
5032
ac3c
30af
9056
8789
05b9
fcb6
5b33
b766
2421
6fcf
6d02
46aa
349f
840a
012d
ac58
e4e6
5bec
2e90
6f89
1a96
2852
64b2
6ada
7b02
4990
916c
ac8f
3441
4d58
caca
5b7d
e779
0a28
4d4e
6d4a
da02
acec
59f0
a32d
e938
7cb1
624d
2875
029a
f1fc
c742
e0b9
8c0a
7c03
b2ed
1e9b
32b2
185a
80f2
6d8f
ac72
7858
59e8
5056
6cbd
ac48
2966
32a8
3289
7092
d1ed
0366
bb43
6190
c367
1528
c243
32e4
32ab
1e3b
f47e
1702
f9a8
e6b2
5215
7ff8
7468
47a5
288c
ad02
666f
c659
5445
bf14
400a
a004
6dae
4246
c4b6
eeb5
dd0a
910a
32fc
658a
1e66
5076
32df
0a5b
ae0a
709e
29ba
ac25
4554
6dbf
28b0
eb42
b4b0
286b
d6d8
bb84
3a4d
7390
acc0
65cd
d363
690a
0286
32a3
03ad
180b
64ad
6430
52df
6fe2
a275
029f
0a58
4d61
5210
ac3f
b8ba
7ca7
bb71
6d82
a7d0
2876
5c4d
506b
042f
810a
4cfc
1d76
02b9
c172
0265
4149
ac0c
348f
ba88
6203
766e
720a
e9a0
284a
7837
b890
d7d8
f0b8
2df2
d657
e206
3447
4448
3295
2b90
6372
e8a1
6790
91fd
684f
414a
7cb0
21a1
9799
ecb6
4fc2
c77d
304d
250a
5189
0531
6d5a
89e4
b990
1aad
b2cc
7761
6aae
5bb6
6890
6fb1
efff
cf46
3296
c6d8
2837
22ad
ffc9
042b
a398
61a0
acef
50e4
431b
c29a
0a62
50c8
930a
c110
e658
2224
7269
4976
8fbf
6079
9cfb
6fb2
5642
6d52
f1f0
02ef
9cea
2922
8ca9
5990
3496
32f9
66d2
c10a
de9e
56df
8565
bf0a
1a30
3c02
afb9
080b
590a
3497
054f
3694
a908
0a3f
beb9
1890
accd
fca7
d742
5dad
14f4
0706
0a7d
28bd
3637
948f
e4e9
ac73
50b4
6d8c
59b0
fae6
1e68
860a
87fc
a057
fd51
5016
02ba
534c
d382
03d9
32e5
5c05
6d15
32b0
c8ad
b090
1733
03e2
289f
5b1b
1233
940a
a191
90f6
b294
177c
5067
e476
3012
f363
659a
4390
5c42
426c
e8c1
041e
c3df
480a
32bd
a7d8
d4c8
bb54
1db9
6feb
3494
2df0
50e0
03e4
3d07
a802
01f9
5044
b60a
13bf
cb5a
0565
7267
ca51
3908
0a8b
780a
022b
77a1
146c
530b
8ccd
31ba
4da0
0e24
fc58
94fb
f10a
79ef
d06c
64c5
6cbe
340c
50bd
172e
fcec
9131
f30a
32d0
ff6c
32cb
a57a
b190
6d67
6017
16ef
6ea1
b502
5262
4690
17ce
c7d2
2d3e
eaa2
018c
e623
380a
28b8
9d0a
42aa
7a28
ac55
490a
aeb7
0c10
34c6
6f97
ac3d
c1ad
5a58
02a2
2877
6fc4
d39f
6fb7
0425
7cd1
c16f
57eb
5c0a
028e
b308
5005
07fe
81ad
a88f
4ff8
32d5
5f49
042a
f202
0139
7838
0a91
e7da
4f64
342e
ecbf
e13d
6ea0
a828
ac7e
ac23
ef7d
07e6
8490
b81c
0a6c
1721
91f5
944c
1a06
d1fc
613d
5873
5d60
6861
3291
39dc
3805
5b79
8f75
e709
4743
5be6
4cb6
4a65
6470
5017
28b6
a111
32a7
6d77
505b
6bff
ac76
e9b2
4236
bf20
e970
e5f0
3287
1d24
6d60
709f
5a22
283e
289b
5bbd
626d
7b7e
d00a
32aa
ab8f
fff0
5bd8
e921
4f05
356d
ac32
0ab5
0536
b845
af30
3424
28fb
3904
32f8
45bf
28b1
4ab6
501d
0729
126e
f20a
0ab9
b50a
28a8
2898
3404
a439
949c
b70a
344e
8802
6fb9
5b8c
32dd
4c06
50c2
346d
342d
98d8
a8a9
ff2b
1660
705f
0420
5347
1c79
a138
5be4
5b1c
4f0a
6482
c3fd
80ce
1d79
4df4
ac8a
b1a2
0248
47ad
926e
28b5
af39
d7dd
7097
c194
21a9
f8b1
2499
0ad6
6d5f
b829
34b7
87ba
516e
073f
46a2
8fcc
3f20
fafe
2361
c90a
7679
644a
c01d
f039
e70a
a70a
b719
6c90
b6f0
1b90
042e
5fa4
509b
ddb5
6608
850a
8465
0285
e831
3307
01a0
fe2c
7b87
32f1
228c
34fa
7f2b
02fe
7b62
03e0
6708
4194
6d5c
70a0
8165
6d53
5247
acca
5055
2887
742d
14a1
157c
1b5d
acee
69d0
7e90
c50a
58e9
027d
32af
513a
1b8b
4756
6fd3
c2d6
c97c
df0a
5af5
6474
bdd5
fb0a
7c90
9843
37ff
2b2a
6234
1564
526b
42c4
5057
3467
6de9
a895
f705
45c0
a8c0
d1e5
963b
340f
5bc6
b836
05b8
01cd
2917
5075
1514
4b02
d069
d862
6015
1a25
32ed
ac1e
04e6
6202
8017
6a90
34a3
55ae
d67d
3902
4e3d
34c3
b80a
3a70
03ec
9a0a
ea79
4241
25e2
62d3
2379
340b
c8f9
32b7
db59
2021
6d4c
67c0
614a
ea0a
d170
bb1c
5a1d
04b8
018b
a9ca
0c3c
3390
454d
ace3
b653
28c0
c55a
7368
2a90
5573
980a
bf62
52cb
8453
8590
01a4
1dfd
10c2
3f0a
75c4
e90d
6990
ecb2
88e9
6dbe
38ad
a4d9
e1c7
3412
6577
9fdb
960a
2b63
55e8
3e90
4656
a124
341a
3478
03c1
5b63
71ad
e336
93f6
6ea7
4e42
a502
b816
5db6
6d99
cc0a
2d34
3847
059d
b126
04c0
7190
6da8
e50a
34db
8e8d
ca91
61c0
c8e9
0a84
190a
ae90
fa0a
6fbb
0ae9
e691
ac75
677d
2a86
4e02
db91
2de3
345a
45b5
f2a5
312d
84fa
0a92
7de8
1276
3422
734d
6493
d0ad
69bc
03a6
849d
5779
4203
bdf3
6fd8
843f
50fc
ac22
ca06
3471
6d7d
a539
6d94
a9e7
5f74
66c8
5082
6b90
b6e0
ab90
03fa
4d42
543a
bf5a
e708
03d3
32f7
088b
69fe
7a90
44c1
28f5
6f94
dac2
50d0
6db7
c06f
8a05
1e6a
1ab2
6db1
b0cb
0194
3481
674d
d06b
5fd9
7b73
40c0
5bef
0a7a
600e
6d5e
a8c8
4966
374b
03ef
6eee
4a5d
ca6f
16ca
ac1c
6b4a
50b9
0c65
75e7
a83f
32b5
50c3
5a59
e1ad
6fed
5bdf
a181
037e
5a02
3941
32ca
9fd4
7d47
7d08
80c1
32b1
10fb
0c28
6fbf
de0a
8190
90db
3199
87ad
cd20
1ee8
011f
030e
c306
2690
349d
34bd
c6d1
348a
0538
873a
4744
6ea8
09dd
8779
ef75
021d
1b0e
5dde
4e79
5924
50a4
0aae
5ab6
adb6
0a74
6ffe
faf6
f035
2f0a
32e9
62fc
6d6e
c773
c242
342a
6fe8
e80a
8723
2028
508c
b5c8
6fcd
96ca
4e3b
54b8
3fa7
0ae4
769b
c3c3
bed8
d6b6
f928
363b
6ec0
6fd5
0e30
5255
346a
beb1
28d6
6690
6033
2290
0869
282f
34ba
32f5
6d55
f57c
21c0
0e1a
4a76
b88e
540a
3ca0
d879
4d65
32e3
8a90
6fdc
dfd8
03cf
1c90
daf5
3418
e924
c12e
eaf5
b490
4974
5042
53d3
f25a
5bdc
9272
5b10
b590
4e8e
6eed
9dd2
db12
87ec
d20e
7c60
0289
fb43
3fd4
d50a
9aba
3eb0
ab02
b304
ca41
c402
f1fb
2779
504f
0505
8f84
04a6
32d3
9baf
3898
b30d
3410
7a79
d7c7
ac0f
adad
da44
d642
a293
03e8
6423
ac8d
ac1f
0ba6
3019
4098
7d23
cb91
6d92
50c0
6256
cf14
60a5
580a
41ff
b32c
4234
ef24
b8d1
0c8f
03e5
0ed9
ac45
cfea
5590
7790
6962
b821
e02e
8bf3
4fb6
6566
6d2c
9d1d
545c
6fb3
4ca1
5f75
6aa4
800d
e959
20cb
6fff
24ea
b690
50fd
3916
d97f
b33d
8275
5bd3
3ae9
1996
9e0a
aeb0
6513
6db3
030f
c60a
7279
cc30
59f1
59af
74d7
c033
6d7f
f59e
57a2
32bf
347c
32be
e15a
fbb0
23e5
2f90
b284
9c6d
6d59
03d7
dae0
0221
504c
e24a
12bf
6fd6
9d38
6eaf
2230
653d
37da
da0b
7476
64c4
5314
6ddf
1267
01fa
5062
6df5
936e
91a9
28fc
347d
6d33
018f
0c0f
714b
6e97
6f96
344f
28a4
1ae1
f192
17cb
3451
1e02
5d57
509a
50cf
32fd
8097
5c62
6e4d
e328
392c
ece5
0aa2
027c
5d5b
feee
02bb
329e
505f
d979
5c61
f931
cf49
ae94
3a6d
5370
a679
5b5d
4958
505a
7e22
8690
5148
b64a
6d81
1714
cfdc
67cd
c656
0584
503c
7624
2dc8
2924
9366
9c0a
0e6a
0186
6fd9
3444
6d23
34d4
3d47
dace
07ff
7ffa
6fa0
f2e0
896c
42a5
8302
2d3f
a4a2
e6e9
66ad
af0a
03f3
3297
617d
2bd9
52da
496f
d80a
3298
f83f
ac49
347f
211b
346c
0ac5
7828
6fea
cdfe
f68e
66b9
5439
4aa1
345b
70e0
1736
4e6d
341f
f63b
0197
6622
d951
6e9f
6dcb
0169
504a
fcd9
3453
5074
501f
096a
2897
fc5d
acc2
9e84
013b
28df
3c98
5179
3a90
16f8
3690
382c
509c
ac53
ab0a
2173
09c0
579f
6130
a990
303b
4d02
6db9
c3f8
f00a
6d8b
8bdb
021c
6fe1
e129
6ebf
b39f
01eb
3894
6dfd
38b0
4bfa
9e98
1082
8fa9
0977
5036
346b
ba8e
e0a4
0ad0
6f9e
6417
3a47
6373
32ef
64e6
6974
6dc8
e25a
2d74
dd3f
f397
5b46
1ee5
0215
f8f0
af90
f37c
3fb0
3452
1422
4ac6
6520
783d
32c3
35a8
f477
3409
01f3
4e31
5152
6fc9
ace4
156f
171d
170d
3b0a
fa63
f0a5
917c
6dc6
8d90
178d
32c1
a1c7
6864
4402
6e7a
04e3
68c1
f3a3
1e9d
0ae8
7c6e
43ca
5c60
d288
6c36
2d29
02a4
f5b6
6d4b
3477
3338
6daf
5b22
0a85
67c7
4014
610d
21cb
07f6
44f4
d9a5
3a3a
6d54
d171
d643
3510
1aeb
4fd2
586f
6fdb
73e9
32cd
7406
32b3
6275
0427
5037
fc48
946b
89a8
8420
56cb
03cc
033b
aff5
2987
7df2
17fa
3473
34b4
a497
7f74
c125
d6c7
7dab
d299
32b8
c8b4
ac4b
4a79
7839
05d0
fcd5
34ec
87aa
600f
0d02
430b
7128
c70a
693d
1209
385b
f4c4
056c
5b59
6d71
2109
342b
cb14
b40a
f9dd
0e37
45a8
6f87
6fcc
0fff
85a0
6ff3
d0a5
0291
fe2e
4e2a
6fc0
028b
03d2
76ad
c137
7832
4066
8ecf
c75a
7463
d195
3b90
89ae
67ad
d779
d1fa
762f
a128
03ce
fc3b
341d
7857
05d4
4aaf
4190
fcd1
99fb
db70
02e6
0a39
6d87
2ded
e8d0
5b42
5b32
4094
5312
56d7
9798
1f04
5891
51fe
6fb5
cdb6
23af
19c9
625b
3de6
3cd2
1c0a
81ef
e2ad
4659
510a
acc4
f90a
6166
6fa8
3734
6d7c
025a
50c5
013e
2b4b
21b6
1d2d
764a
5b37
32e0
de49
aa4e
4398
4331
6f88
28fa
0370
3b96
92f7
e031
7a17
782e
8dfa
17c2
4238
643d
7cc2
107d
7a6e
0a98
0847
62a2
3498
f031
6070
3492
347b
b679
a83d
f60b
badd
8427
424c
126f
1baf
6fc3
fbdb
8852
c80a
ff98
6fca
346f
6d7e
290c
7c41
ba87
4d92
9165
84cb
a30a
e8ca
b67e
cb20
6c3a
4232
20c7
0a57
4527
9b1c
f247
349c
d209
34a4
a21c
152a
89d6
cca0
6e2f
3a72
50f3
9206
cd0a
7641
7ff9
fa4a
45ab
77b2
345c
8e24
6dff
6342
1053
6cdd
8f0d
3990
5086
ece6
3f90
01d7
50da
87da
51a8
b8b9
127e
50fa
6d44
3b79
ac21
1724
349a
4beb
bc86
d3c2
dad8
434b
d19d
ef6d
6dbb
ff10
6faf
9a3f
a661
08ff
347e
2c09
2bda
a6d1
03f0
db65
32dc
a8ad
01a8
238a
40e0
dd22
7f89
170c
5009
d281
f370
3486
6d88
465b
4890
01f2
d5ca
0422
aaff
fcc9
10cd
89d7
5758
160d
d063
50cd
0298
ca08
6de6
03f4
5490
35ba
e8e6
89ab
eccd
39ec
1e55
1990
4ae5
aa90
025b
6d9c
2790
3456
6fde
3a59
4277
185d
900d
103a
6f8c
6d3d
249b
0fc7
f233
3f6d
1760
6fa2
5be7
d6ad
1e53
bf15
56ad
6fcb
6354
6ed7
903b
8937
8530
4ad8
372e
355e
45a3
71f3
e6fe
6e78
e3a2
8733
9d0e
cf0a
22d0
c95d
6d8e
6d2b
51ad
34c9
0c33
d302
e9b8
c20a
bad5
2dea
71fc
5060
2490
15a0
61bd
ac41
fccd
8910
6faa
1b8a
8aeb
cb52
c8cc
eec0
65dd
5959
5c8a
57a7
10c7
0231
c0ad
9ced
6fb8
6fd7
c9f8
3493
32ae
0421
5b0b
c894
893b
3407
0a54
328b
6ab3
80df
32f4
7490
5072
c158
e47e
180c
4879
5f79
02aa
6018
6d7b
6fc7
d158
fdc0
5029
5b11
9fc6
f80a
e506
8726
42d0
44d1
91a8
105c
1a2d
28f9
cfd1
64d6
3723
13ea
e49f
c0ff
3063
b67d
028f
3e20
6db2
22bf
a002
43ec
0909
041d
6d98
3711
c530
80b6
5ae8
5b73
287b
8972
7667
ea6c
289e
940d
506a
0e5e
204a
fd37
c430
50fb
6f92
80cf
c871
2997
3d17
8390
0ae5
bf29
d938
0184
f93b
6fba
4a69
5cd1
aa3d
1a32
6c02
d21d
d02e
5a8b
0296
7ff7
65b6
332d
6363
0a7f
b930
6d0d
6669
0a6b
8290
7824
f6ad
6f9a
32d4
f6a8
87b9
6f82
8981
5643
6454
5de4
221f
7335
8dbb
92b6
603d
65be
0bd5
ffd4
ac86
5039
501b
5021
3111
e6b3
e75c
e902
50f6
4a13
42dc
d734
32c9
e9bd
020d
0423
6447
5019
01d9
68ad
7d16
787a
508a
eaaa
228e
4ead
6814
f375
703d
03c8
52a4
5e34
6fda
ceaa
1431
0295
03d0
6ff7
5b62
64e8
63d3
a4b6
4902
46a7
bc02
4158
4ed9
58f9
b3bc
0a71
6f99
5d48
8142
10e6
5d24
645d
1715
2de5
fc54
59cb
6fbd
2adc
01fb
328e
fe49
ebf7
28f8
eb36
e839
5015
454c
501c
2420
32bc
5038
3427
0388
4e4c
46cf
654a
362c
58ad
a365
4f90
6243
8831
32d2
d6d9
03f2
15c2
5bd7
5ca6
02a5
371c
696c
e661
e57b
345e
2c19
28fd
3055
febf
32b4
fc63
0e56
6f9b
0871
82d2
2324
6fd0
2034
34a2
c6c1
e892
e0b1
4247
03f9
6d9d
3c3b
acc5
0309
6fa3
a370
086b
898e
6fe4
b390
ede6
e65a
0211
ed46
6497
6dfa
6d6b
6dba
6d2a
2304
89e6
dfc8
028a
8e89
f8ff
d109
4b48
3a33
77ce
b9b9
f343
4795
5bd9
0a93
a5ed
2884
0225
1717
1ad8
0a9b
12cf
9bba
7e0b
0de4
6414
b53f
74e9
b80e
40c3
0f0b
5c7c
0264
c628
0c9a
e9a5
1852
77f6
87b6
88f0
d279
6403
9d06
9370
34a6
4312
34fc
d8a5
e7e1
4a68
5bf4
7dad
9a48
6147
9428
5b60
5053
4522
acc3
c83b
645a
1873
0416
0227
e53b
6da9
349b
8138
d1ad
88ad
6667
7d0b
473a
6fe3
6242
1b94
09f5
6332
02f0
288b
e824
5bc4
147a
0292
155b
4255
02fa
407d
762e
c1f9
02b7
a630
64d7
2926
1709
5214
b947
a0d2
34fe
1a17
80dc
03de
034d
34cc
fada
02a0
ea2b
5a51
28ab
c7c6
1044
5b4e
89fc
0165
f16a
6386
622e
0b3e
c971
39e0
c6c9
36c0
43b6
cc18
8828
50f8
d426
05fa
5b0c
1bbf
03dd
0abb
220d
5b24
fe81
6f93
50f4
98f4
04a8
23eb
4ef9
6d97
8930
37d3
6255
4202
d958
7220
89b0
8089
b4b6
2f73
0868
4ad9
0293
6d9b
ced8
3ada
8799
ac3e
6fec
8926
02c4
6d8d
ac52
6c6c
501a
b15a
777a
03d5
b78e
3105
f09b
3d98
7d9a
0297
981e
8ce4
501e
ff64
5539
2921
91ed
782c
16f0
088e
824c
0f0e
e02d
d4fc
017e
3cb9
4a42
341b
0a76
300f
c763
12f8
efe5
5beb
2054
db02
7ccc
8f3b
50c6
25ca
5b65
2052
6d84
87e5
2247
c1f1
4742
642d
0152
5fc7
1f79
782a
6576
5eaa
e2fe
6fee
95d2
1f08
ca8c
3beb
d174
5b1a
5139
da1c
3485
42c6
9416
5bb9
2b02
3636
4e32
50de
6d86
ca53
bbbc
1614
b654
d439
cdc4
6fd2
7b3b
19fb
f7da
1d74
4b0b
6d95
7014
afa9
7c11
3844
ffad
4465
ea7c
7820
1e32
5b6c
c370
f3ef
e0a8
6fc6
762b
4ac0
5bda
34f7
10fe
64c0
340e
8954
98fc
5089
a40d
2145
9ba5
98db
7fb3
d9e9
697a
9987
2d43
6dcd
f3ea
0b66
ce48
59fa
fd67
64b9
bb5c
274f
4062
6da4
723a
6f9c
018d
7935
6760
7aaf
feb0
fbdc
95ce
90ad
5363
02c7
3428
23e9
03ca
80ef
5349
e677
fbc9
0c75
21ca
db52
c758
c017
3c7a
f3fd
a3d7
c2e9
0393
0864
8979
df3b
12d8
6b74
5d02
7ddf
8b56
03f1
1d52
2dad
43da
1d0b
5b82
d634
12af
8e3b
2eda
750c
4151
6161
f5c4
0299
fe1a
4079
88f5
eee5
50af
ab0c
173e
1552
4db6
f327
87bb
1d09
f33d
bb63
40b8
5b92
6db0
d7d9
93f7
fcbe
4e30
6016
0426
b2bb
0d8f
f593
a188
34ca
1966
a5dd
0e7d
40e8
2925
2232
823b
c307
6daa
0a6d
1f02
fba8
eeb2
8b10
6f8f
6394
ecfc
5c04
83cb
a7c8
29d4
ce65
c642
5b21
f3b2
332c
588f
5c14
427a
c4ff
fecf
ba4d
5870
5fad
4526
5030
02a7
6570
b979
6fc2
968c
7eaa
04ab
3162
6d85
623d
e029
2b4c
2307
d20d
6fbc
52be
5a9c
5bd0
64c7
28a1
c7aa
d4d9
3d79
0bbb
8f02
5b76
3f79
84c3
d8e9
d253
6e02
89af
0287
4284
94e3
7d6e
f352
61e0
ff8c
3118
6e62
6c62
4924
d4ff
7821
03cb
34e2
d646
c43b
7ef2
17d7
8f2c
fcd4
5b58
08b6
f021
38b9
3d7c
4796
6d16
50bf
6d2d
8f74
34c4
6d08
e776
7fe9
28da
0aeb
36e6
a135
6e09
1ecc
f57e
fc95
8e3a
266b
75b7
fa6f
1375
fe5a
6d43
2d46
bb77
0c8b
24ca
5022
20f9
16c0
fdb6
0226
9168
d027
3d29
4051
5e76
5743
5ff0
35ca
6446
03b6
956a
7778
76b3
64a9
9128
1e9c
02b0
57e8
87f5
786e
01ee
4bb1
fe2b
500f
679c
5b5e
04aa
6f86
d799
6fb0
e90c
c11e
386f
a3f9
03ed
b5cb
2944
34c5
aed3
0cb9
1a8f
3b70
88ed
1d5b
d88d
0bbf
5d3c
6df4
ed6e
fdec
92a6
fe69
d659
2990
203b
f5f6
03da
6c20
18ea
f3b6
342f
1a3b
9a5c
5ff7
6162
fbff
4941
502b
28d2
41e8
df11
624e
e6d0
6c7a
48f8
0aed
6420
4c70
38cb
6ff0
752b
2892
03c5
793c
e070
46df
4e23
f8ad
6deb
02d4
337a
6f91
877c
1a0d
34cf
89f8
e90e
1df4
e122
5d43
981f
4002
6f84
6969
a014
5bc0
64ec
f9e6
5033
9ab9
d529
8f08
ad99
6f8b
4ca6
7962
77f0
3a32
e4e8
eab2
4258
a9ad
2124
df25
4531
6da5
54ba
ecad
befb
6db5
5d37
173c
6dd1
c520
cb04
0330
a0d6
7dd9
82ad
5b61
0294
0a72
28af
4bd6
0143
2471
6eab
0acb
0fd6
f1ad
360c
fb70
6dec
5e96
7522
5ba8
268f
e13c
0a7b
fca6
d309
a1d6
6dd8
50b0
8f79
5078
fbbb
9b70
90a9
f43d
3c4e
3103
50b1
ea4a
3425
0f02
5958
5d3a
28c3
bfb9
3455
34bb
28a6
49f9
8202
2894
34f6
a3dc
e8dd
53bb
b3a7
5b9b
5bab
15ad
76fe
50a0
3415
1a28
50a5
bb68
40c2
59ed
0212
28cd
6d45
fd20
5dc0
f3b4
852d
18f6
c48d
9924
70a8
2c62
3446
a3cc
f978
5047
4498
2260
2509
fb53
31b0
454b
426f
50cc
2e9d
0c09
72ad
c0e5
34e7
7577
50bc
c245
1ead
02b1
02b4
b334
4e6f
d87d
4b66
426d
10cc
6f8d
99c6
3e6b
8242
f432
b371
309e
0a96
2895
fead
fbc1
e3f0
4251
17a1
4262
5b86
6ff2
fedf
a947
7d3b
813d
21ff
fef2
254e
a7ff
3c10
20b6
71b8
5ada
7ff5
34e8
039e
34fd
53ad
0c89
2d9a
0c3b
d13f
0357
ae14
02a8
4272
ce0d
c607
67a8
80ed
8c52
5125
5d20
d2e6
6de5
0afc
ada0
e602
ca45
5bb0
34f8
0173
c5d1
e03c
1508
fdad
b379
c123
e66d
5b7a
152f
da62
2503
1f88
b497
1da0
fb6e
f5ff
17e4
f333
7168
272e
f53b
b5af
64d1
6db4
1851
a839
1c3d
9322
8008
5d61
b494
8bd7
5027
1370
4ab0
406d
3764
68f5
4270
5f70
89e5
5023
956b
0c21
fcc8
4e53
59bb
6e20
28ed
7db2
b620
2b69
e522
0b87
1f99
50c4
e365
08a2
8ddb
1718
2014
d06f
228b
d655
e9ff
3d57
407f
7b65
5161
0fc8
864b
7a48
61a4
5d2a
341c
1825
a1e2
1770
9be5
45b3
1079
0a81
7cbb
76be
1e9e
50d3
5b96
eb17
0728
1774
4dc8
5dfb
0ed4
8b02
8838
3a02
89a9
04ae
6dcc
29ad
65c0
0216
3641
48ec
5b6d
ed65
612f
5c55
6660
6d41
4af8
34f9
6460
d926
1046
b851
03df
6f9f
fc6d
91ef
5bbf
5d42
8014
51ef
ccb6
29d1
9a65
3302
cc44
bb1f
a81f
e705
fd55
59a8
7420
f23d
304e
4488
5c27
5bf9
4733
547d
0a8a
c4bc
7827
afb4
17c8
260b
6fae
04b2
3458
185c
50a6
37f6
dd41
8d1f
0f09
5b2d
8770
5cfe
7c93
fdb8
34d0
9eb8
c599
a3ad
dd15
4e7d
a494
7628
6434
a611
03e7
e0a5
640d
01f6
1a33
0e38
8266
6631
02da
46be
0c70
7db6
02ae
e279
5c38
86aa
2017
0524
efe4
dead
fae1
6d17
6ea9
4874
4bf2
22fd
61a1
ee51
613b
50d8
508e
0702
d9c1
8945
376b
9462
f1d8
4798
5138
3002
fcd7
4779
1ddb
34e5
5be0
e8e2
f61b
6cb6
7502
0207
360e
14d2
0ed7
5cdb
6d28
50eb
a9d2
37fa
7b63
b630
7daf
1723
d6a4
91e6
48e9
5102
78a1
22db
6f98
aea9
6d29
d856
6cb2
fe12
20d1
a49d
696d
172b
373b
4dad
8dea
5b07
5954
1a5f
6fc8
986b
a620
5391
fa16
395d
7f6e
ec13
940c
0911
fe02
b47d
5d56
6611
0ff8
013a
753b
0504
6679
cb1c
3cad
2ead
a851
f48f
56b2
e6b6
4482
4c95
646d
1999
424a
1795
871d
b0db
4a58
5b18
34bc
2371
e1d0
449e
2392
a85a
ded0
0171
15b9
358e
6d3e
1794
84f5
fbad
030d
f0da
b945
6fa7
34e1
2465
c114
a9db
23f3
6d9e
3459
17f5
a091
c117
701d
6de8
bc63
bf27
200d
75b2
42a2
4ff7
4e6b
8794
937e
9824
840f
4271
6d38
1ae9
8834
6ead
8749
577d
b678
3c42
4a49
4e73
095a
6f8e
88a1
03c7
8de4
786d
d87f
041f
7235
90d7
3eec
42a1
6d24
3765
bac5
98f5
5d79
d909
fe2d
61cf
c244
6fa4
8fad
970c
40ad
d18d
3a61
44ad
6002
2d30
a147
ccb7
4239
6d9a
652e
51ff
5bd2
c3fb
a95a
6030
9144
727a
03d6
c848
91e5
3423
f5ad
4361
75ca
357a
1af1
3bf2
5bff
9d16
28fe
da55
4233
cfad
3567
f2fd
07f5
0aa3
4aa8
624b
66e8
d0a4
0f56
220e
e5b6
34f5
c48e
e612
7479
6d35
4256
5b36
595d
456e
d97d
22fe
fe9d
c2c3
1ed4
3d09
159b
7a2c
fb08
10d5
28bc
4430
7b17
509d
5b4d
5b39
7b69
14b0
2bdc
5b7b
449c
625a
5b30
5bdb
cf56
5b3d
7dd1
b832
d24d
e908
1e5b
ee9a
8714
a6b9
021b
7c02
5087
096b
aa49
bec1
c8eb
45af
4308
5d26
3476
6d14
99ad
12f4
071b
3419
f6b2
cd1f
315b
af14
23ad
2e87
5879
7b1e
7e74
5035
fbec
0525
50d6
082c
080d
0163
98ad
1fad
6602
e61e
50dc
cb8c
82d8
9aaf
289a
6fa6
0a97
923b
5155
242b
f664
4a9b
4fb9
9509
a402
072c
74de
4efa
f7a1
4e7f
5081
9d9e
c95c
bb58
c3db
646e
b9ee
4a6c
3aec
8e9d
7569
6c37
b6b5
db42
8162
4e38
175d
34aa
2946
5031
644f
e707
87e9
4946
2a5c
626b
fb3c
2097
9038
4d99
5b84
6eea
d791
6d3c
20ca
50a1
b4b9
5cb7
8c13
2919
242a
5a5d
0174
3620
e917
946a
50e2
60bd
5d84
889a
8fe4
dd27
66a0
2041
adbf
c3ad
2369
0a6f
34d2
f502
3c11
425a
5607
d1bd
4261
5fc3
449d
8d9d
5fc1
3082
d143
623b
6492
208e
0503
630d
7e02
e079
d1c9
5f42
01dc
63a1
e8ea
e5ad
e209
6b02
79f2
4d68
362a
3f91
67d8
7829
8276
7645
fd77
374c
beda
8e2a
f3bb
2221
4c6d
04a7
1854
0c8e
17ec
43a8
22b9
d7da
5b77
7e9b
6ea2
25b9
4136
afe9
2eed
4802
ead7
a64a
441d
24b6
f066
fcad
b73b
5b17
4370
1609
362b
5217
a1b3
1879
1f09
b65a
d114
2a7a
507a
66fc
987c
2220
cdc0
14fd
cd42
5d47
7099
c61d
5b64
01e2
17f2
4e3f
6664
e806
b6b9
53f5
3004
3888
2911
56d6
015d
0a6a
3eda
0364
8b70
6d13
7fd6
8d3b
1ee2
28c2
e8a2
7bad
5ff8
4c75
4e72
35d1
03c4
5106
f058
2a42
5b9e
88f2
5171
1903
dad3
17c7
7d7b
34fb
6ccd
449a
585d
df5a
5c03
5b5f
5c8b
bdb6
dde6
7902
5bf1
b018
b370
04af
5d0d
5095
5969
7060
2b61
ff7d
d717
21a3
6d25
34f2
3702
0c35
fcf4
7077
d005
0312
fdfd
73e0
4964
4163
3994
6eef
60c0
7e3b
ff68
239a
a059
5b16
e7ad
703c
a9c8
5bfe
8f1d
6d32
6dd9
08e3
4e7a
5b66
474f
1466
8798
a2c2
50ce
2c02
614e
8125
b128
3d77
353b
7a5a
5948
5f2a
174d
2d65
5b7c
ad0f
503f
9fc3
4d31
45a6
28f2
887a
634a
7822
5b4b
6e71
f879
04b3
d9ad
4e88
8911
4e78
6768
343f
745e
60b6
da7a
4104
5a57
2f34
36b9
a5a9
34ab
34d3
022f
49ee
0c79
1e08
17b4
50a2
fbd9
6463
75a7
1962
7676
6ff4
fce8
5bc1
5b4f
6ed9
0cb8
5978
b493
c9f9
2d37
ee22
17b3
1853
3546
423f
e2d9
3c5e
3574
eb70
2e58
1732
c4a8
02d6
4a63
4209
87cb
60a4
735a
7ef9
5b47
5e02
ebad
6438
8775
291e
1ed3
23f1
6779
0acd
91f9
5099
03cd
1656
0aa4
841f
4fd0
9564
35d9
5b72
9e92
8707
1a89
793d
c5d0
7616
08fb
64ff
215c
dbf5
d229
e3f5
4a4b
5b9a
479a
01ce
1742
1859
fcde
1792
c395
e925
0964
a9f7
4ae6
eaf6
08ef
61b6
d1ef
647a
420b
b831
fda7
7002
b496
84db
358c
97ff
34dc
77da
7d09
44c0
da12
1c7a
950d
e9f3
9266
a104
7be9
2dbe
c770
1f64
973b
02d1
6ff5
28f0
8788
4799
e258
30da
dd3b
eb86
0d5d
e25d
098e
4a8a
edbb
62da
29d5
ec3b
e986
6ef5
bdb9
635a
c4ee
5be5
1c78
17fe
62c0
2d6f
f2be
524f
5732
8ead
6025
3a43
7cd4
f5fd
183f
cd14
34e0
ff7a
2242
5bf6
879e
2943
7956
16d6
620d
2889
3bb6
cbcb
29ea
fc41
2d68
e62e
37c3
6409
0144
0520
2f42
9a7b
fe5f
f9d1
84f2
4acb
3421
01b2
6d26
c7c8
5b43
d4d1
398f
16e7
4499
255a
09a2
61a2
7634
1935
e035
755f
4959
5118
cc58
0bba
9abb
5f0c
6d27
1c86
ef20
17cf
1bbe
03c2
3762
242d
34ae
c4c7
0c1d
2893
e6fc
7dc7
d141
bce7
4275
c281
7631
0910
99f4
67b2
7095
122a
7b64
0352
fcfe
a9e6
6366
125e
f1a9
28d9
da54
eaf3
7c2b
e402
5e7f
cab0
3897
d370
4e41
e03d
c382
878d
23b6
4e22
17d1
8367
9838
d0a6
5e79
e74d
5b2e
234e
b668
c824
5bc5
0879
6623
8d8d
b261
2204
d202
0145
6e66
9762
0ac4
755d
0eb7
6d22
0b84
1872
021f
69d1
ecd1
9a5d
f2c0
813b
35f2
1062
7629
2b79
ea21
27ed
2b09
d496
955b
d148
034e
1402
8bad
767e
3ae2
01da
f3e0
6436
a63b
dd30
ce9a
be15
7920
038d
278b
9f2a
0575
2444
aa24
a12a
3dd1
0a63
b2a3
92fe
4c96
baaa
d8c8
e57e
89d0
f934
ce8f
53b9
ff04
0908
3379
34d7
3347
ba71
ed86
33aa
5bbe
8f99
4ef1
17ba
974a
6032
50a7
9377
2ccc
98e5
4649
9002
64ee
6758
448e
61d1
47ec
50d7
4461
aea0
7589
5f73
64c6
6375
2930
4cdf
c9f6
b3a8
d8c9
a0d1
edcb
24c0
aed1
fd73
4e6e
31b9
3d24
6c2f
7b46
1788
02eb
aad6
0c77
0196
e31b
5b51
5077
6d34
7005
d105
81dc
014d
4f4b
0314
423b
690e
3656
50f7
42ad
26d3
3074
58b6
6ed4
e551
3066
0379
2a9c
35a0
473b
a5fa
c5e9
40e6
5602
9b02
7c22
636d
02c6
f379
f6d9
871a
aba2
c24e
0ab4
5d25
17d4
cfc8
d9df
8f85
42b6
1b7e
5de8
1f44
fbaa
5f2b
52b6
3b84
8289
9797
4489
bb3a
8f3d
1707
215a
577a
cf98
09ad
6804
61ce
509e
6416
7d02
5bf0
6ddc
53c2
123b
4702
5b04
86db
6d09
47b6
b131
7660
17fc
6411
4159
17a2
2e75
a284
45f1
88a3
474d
46a3
641e
8e02
77aa
7661
4d24
7b79
d1b6
4d79
02a3
b85f
e2e0
7ca2
27e9
41b6
50ae
4d5b
6ed5
b3ff
a13b
3b94
47d8
3426
61e8
6dfb
d859
656a
b9ad
8ba1
597d
c36e
557a
e60b
c539
5b2c
29f0
4e35
6666
76c8
6b30
3da0
5f30
a4a9
5b78
896b
e55e
4eb8
4078
f207
5b71
085f
c03b
dd45
1776
5b74
63d2
e6f3
8055
83f5
02ca
5b3f
2642
8806
bb5e
5cd2
6031
e179
551d
b2bc
0b70
79b6
3dad
4569
64f4
ad75
6302
9cc4
7823
5d14
7f02
f50f
0d5b
b335
b957
48a1
4e77
2dec
6eb8
35cb
633b
531b
aae1
8ecb
f548
029d
a40b
4129
6db8
9795
02a9
07d3
3d5b
8be3
5ad8
fe89
34da
e541
70b9
7e45
f3fc
5757
360d
1ef5
8525
b7dc
ce79
ecd6
e8e3
0a2f
5e3a
ba4c
0905
5d08
46a9
a95b
5a56
1405
76bc
0409
c2ef
fccb
6e35
dda1
66a1
bcf3
5088
1a70
af7d
4a44
5b6f
d0c2
5bd1
0154
d1cf
50d2
97a3
2bad
5da0
57c8
8761
fdfc
623c
28f3
3f14
5e3b
63b6
029c
23e3
fabb
3c56
ed11
5e35
35ad
d527
5141
2292
fb5a
fc02
2c47
a95e
5246
0aea
8c02
6e7c
5b98
ae43
28cc
3017
950c
c29b
5b9c
4219
5b05
1cee
9563
fa75
ad5b
6ccf
04d4
aaad
0d5e
c37a
5c48
6e2e
9d30
e381
65d4
807f
4235
89b3
0d7a
300c
7389
5028
6b79
40b6
0b04
4481
262d
28de
1059
a48f
0cad
1e0d
3763
487d
5bb7
6ddd
b03a
4263
0c9f
644e
91b6
6eb4
ca1d
34eb
b71b
016b
4c94
78b6
37ad
6767
403b
c02d
2179
104e
6d20
4732
1bd4
6d1a
71e1
5e78
7802
97a0
0b3f
0a65
0a70
e963
27ab
455b
08ad
50db
776e
28f7
5bfb
102d
2b8d
bb03
c204
f454
30b3
8fb6
7b20
ff75
aff7
f4a3
1edf
f9c0
c0b7
d6da
5968
02d7
530d
17c5
4e76
605d
7da3
3a74
652f
7251
c3d6
4af2
a118
9784
1f45
7a6b
d3bf
66c2
15e2
eead
2d02
62d8
6d1d
0abc
ea20
b92a
a8cb
7c3b
9484
8708
55a9
d888
2143
45ad
096f
5920
c1dd
b6b4
7de9
f49b
b52f
b20b
47a4
3511
4642
170b
633d
e246
5b7f
3891
af5d
9e56
0e68
4ab8
fece
adb8
2519
0af9
f8e6
8b43
47c6
1f98
e271
5685
7353
c06b
5bf5
391c
45cb
6448
3c79
1e09
2245
0bb2
9bfe
0a19
fbb4
3393
6ffb
afa1
2db6
5ba0
8553
80d3
fd4b
1220
a4a0
34a7
414b
2be2
c352
3072
63ee
a212
fcc5
9413
28a2
6a4b
4934
6de2
2bdb
c135
596f
8778
01f0
6ebe
54fd
7575
f3f6
6034
643c
897d
7627
50c7
a9a9
1789
508d
3315
9c08
bb62
d2fe
2a60
224e
c7c3
3814
381f
4e51
9bad
34f4
5869
4634
5092
4e8d
4268
3d3b
89ea
a22d
78e9
28be
8fb2
a13a
09b8
911e
0fd3
ead0
662d
4347
2cad
59f6
a8b4
a008
fccf
5b6e
1b70
562a
96a6
4e61
c4a0
9796
0b05
64d9
4b12
5972
f155
5ba9
5b1f
6c93
359b
6331
cb79
948d
7662
3602
48ee
5093
cc59
0f57
19ad
4caf
c7a4
3d9b
0ec0
7cd6
a1b6
243d
4e65
b692
fd14
b98e
4ab1
c84a
02c3
6266
14ad
10ba
80d2
1a6e
4125
e86b
1d13
6405
e9a4
5a6b
6dca
02f5
7074
0f34
6477
15f4
b778
5e2a
abff
2479
34ed
92ad
74ad
e3e9
d4ad
20ad
37f9
1dad
0ac7
59b4
c420
cfc2
8db6
db22
f902
211d
50f2
6dbc
3a4e
6578
3163
6dbd
3afa
406f
0acf
0ac8
59ad
aead
9dc2
1430
292b
ae20
5b8d
7ee4
1cad
4ccc
fe65
8fe5
53f7
2e14
da5c
d60d
eba6
17bc
5d5f
6de4
3d4a
6dd2
1e8f
5c89
173a
18e6
ea3d
b27d
f674
5621
5bfd
aa5e
f63a
56b6
2234
e4bd
83b6
5b7e
c1e0
dd56
fded
f7e1
4fae
3009
5dec
f924
288a
37fe
83ad
449f
04ed
31d7
34dd
6731
ff3b
fcdf
a1a8
75c2
8e74
177d
3d41
53b6
3102
5091
f551
6e5c
9b3b
8774
8e79
cd39
0a49
503a
5c08
2aad
4f79
1328
66ef
3e70
5ba3
476e
a406
4551
c7d8
175a
743b
bead
2d57
6429
4858
d1f0
e3ef
0831
083d
5753
4e0b
5bb3
fce0
106e
4e70
af12
bb07
492a
d1e8
c5a8
33b6
1ffc
772e
52ad
1f3b
05f6
6df6
8863
46db
0809
732e
54ad
6a3b
be88
58cc
fba5
054e
879b
87b3
22b4
4059
f9e3
2b71
8aad
7e26
4e2e
02fb
7826
3e31
4257
a561
5b44
4e75
1a7d
34df
5bd4
67d9
6d0b
1302
2426
5646
7ded
88f3
6cad
6df7
fce9
3dfe
b13b
015b
7da0
656f
5630
8d5b
3495
87e8
a285
f5bf
02d9
883a
1fff
fce4
50dd
962b
28a7
500e
229a
6379
586e
3744
26c2
8724
502a
3e89
3a4b
0394
3c34
2b84
c6a2
c6b6
6dee
4ed6
28ce
e8b6
354e
1271
c12d
10bc
d623
2206
0407
6dd0
4d3b
3a14
b302
d894
f1f1
89d4
daad
2262
4267
5bbc
6de7
e73b
5d63
ff79
0d0e
b29a
4a4a
aade
43a4
1530
5c79
31aa
1d0f
3f7b
6dc3
faf9
424b
b7a9
5d28
7fdd
65b8
c8d5
d7ad
6271
0164
4e74
d8ec
4e1e
09eb
411b
fe24
e5fc
0b67
733b
87fe
3503
641a
015c
684b
874d
4fb7
fcee
92f6
a484
fae0
4ef8
4e7c
db0b
6ddb
8bd0
1b66
0be5
49ef
0b33
b3c5
c96f
617a
7170
640e
d8ed
40f0
6a43
7f3d
9a2a
979b
f8d0
90b6
5e5d
17a0
383a
ed12
69dd
f1f2
1b3b
44d8
7655
2427
f078
0c06
5bcd
50b7
8f09
e46e
3505
b014
fef9
ed24
17e7
6a6f
72f3
a615
edb2
4f5e
9ad8
ba79
c870
5802
1c38
23f0
8421