
[PAD]
[SEP]
[CLS]
[UNK]
[MASK]
0
1
2
3
4
5
6
7
8
9
a
b
c
d
e
f
##6
##1
##7
##b
##5
##e
##a
##c
##3
##f
##4
##2
##9
##8
##0
##d
##00
00
000
##01
0000
##08
##40
08
01
##83
##45
##ac
##50
##3c
##e1
##4d
##09
##36
##fe
##f0
##dc
##bb
45
##49
##10
##80
##65
##ff
##89
ac
##a0
##6f
##32
##d9
##e7
##41
##51
##69
##de
##20
##000
##23
##61
dc
##4b
##87
##4c
##47
##6e
##57
##6c
##27
##0a
0800
##43
##55
##2c
##be
##8c
##bc
##29
##ad
##67
##6d
##2f
##a9
##b9
##60
##37
##4e
##a7
##25
##2e
##ae
##b7
##28
##21
##f7
##a1
##39
##fc
##b8
##30
##48
##f1
##f5
##68
##2d
##f9
##b1
##31
##bd
##4a
ca
11
0045
##d1
##3e
##d7
##59
##5c
##81
##b0
##ec
##aa
##33
##e9
4000
d5
##4f
##3d
##ba
##77
##6a
##42
##b5
##35
0a
d9
##62
05
##3f
f0
##8e
9c
4500
09
##7c
##3a
##bf
49
##8d
##2a
3c
41
##46
15
##05
##85
##fd
##8a
##79
##010
69
1c
de
##66
##0c
8c
##3ca
##ee
4c
##dd
##71
##38
89
##b2
##fa
79
65
##b6
83ca
ec
39
##44
6c
e9
51
29
36
cc
b9
##70
0001
##22
0c
##d5
fc
d1
61
91
c1
c9
1e
96
2c
##f8
5c
59
7c
##34
caf0
##d0
101
a9
f9
81
6f
31
99
e7
bc
##a5
f1
06
21
19
01bb
a1
71
e1
34d
fe1
##834
##64
b1
##b3
be
##88
6e
##0e
57
02
b8
ac10
dcfe
34d5
fe18
1834
d536
##f2
fe
##da
101e
##b4
f5
##75
90
##7e
##63
7e
75
ce
##096
##d8
92
4e
ae
##6b
50
##a2
5e
10
##7f
32
2e
58
e8
0e
78
8e
##3b
35
ee
17
87
3e
55
9e
6d
47
70
a5
37
67
e5
##df
25
95
27
85
97
##82
##8f
77
c5
a0
9d
##af
b5
20
c7
5010
07
b7
4b
f7
2f
a7
0d
001
d7
80
##011
0101
28
60
8a
bb
##24
##2b
23
4a
0f
ba
d0
aa
3a
30
ad
3d
0040
3608
40
##890
c0
43
dd
7d
cd
e0
fd
6a
5d
4d
2d
##26
b0
7f
fa
1a
1d
c2
##400
18
1b
ed
2a
5a
cf
a2
7a
8d
da
##8b
48
9a
ea
bd
100
ff
b6
38
3b
68
4f
eb
9890
96a0
9096
42
c8
1f
76
03
##db
bf
##74
a8
9f
0108
af
##f3
88
98
d8
3f
549
62
8f
##f6
73
1e1
f6
##d3
##ab
##86
##d4
82
df
ef
5f
##84
080a
33
##d2
56
46
5b
f8
##d6
f2
0080
551
e6
##fb
1000
db
##f4
7b
8010
16
66
f3
##006
b8ac
a6
c6
ac6f
d6
##5b
72
e2
cb
22
##a4
0a08
2b
6b
d3
9209
0955
8b
5492
26
12
52
86
##a8
##a6
9b
1e15
d2
fb
5515
1549
0b
b2
##a3
##56
ab
63
53
e3
c3
93
0002
##f06
04
b3
83
a3
13
34
##5e
##fff
6f36
64
##5a
##e8
##78
##058
e4
##7b
##5d
##e3
##e4
##e6
##5f
##54
74
##58
##ea
##ed
##e2
##ef
14
##52
44
##eb
##53
##e0
##61c
adc
##73
05dc
##76
##02
##7a
##405
24
a4
350
##e5
##06
##7d
f4
94
##72
de00
54
8011
4011
ffff
84
d4
bede
c4
##4d9
##90
b4
bbc
##91
0034
##94
##09c
f096
582f
a058
1e7
687
6550
##11
323c
e8e7
e732
3c65
4d9
0005
f065
##cc
200
##c8
49dc
##c1
0100
##654
1501
##cb
0032
361c
##17
0808
##9b
##c0
f057
1ca2
##c2
##235
##c9
##96
05ac
##04
##98
0a00
##9c
4574
##99
##ce
020
360
500
##cd
##95
##cf
adc2
##c5
##c3
##0d
##c4
##93
##c6
##12
003f
##92
##1f
4341
##9d
0028
##254
##03
##97
277
##ca
##9a
07c
##c7
##14
##9e
##9f
##18
a01
##1d
##0b
##1e
##1a
##16
##15
04d9
4b69
##0f
##1c
##13
##07
##19
##1b
1e6e
f5d9
6878
d968
d9f5
309c
234d
9c23
4d9c
4520
1e7e
9cde
7405
4143
bbd
##50a
030
##703
000a
2005
3f06
##2cf
##f11
0050
##706
3654
##018
0027
0004
0105
##f7f
4908
bbe
5400
4006
8006
0012
06c
020f
##b73
##252
3502
1bae
0208
a01b
006f
5254
1235
##805
2775
8c62
758c
##576
0210
10a
906f
069
0037
5008
##fe8
0a0
96c
067
##406
1100
088a
060
0110
50e
##a06
0017
108
7e01
06f
##098
##306
dedc
0a7
061
##f0a
005b
6e01
06e
78dc
1703
9d51
##402
##a0d
065
047
efe
a208
00ff
b6fe
##a98
06d
ae9
1002
007f
249
0303
2f08
##338
ffc
b87
0550
##298
2d9
##f53
0006
1001
##206
##aaa
##450
051
109
4ad
a050
bb9
906d
##106
777
##555
50ba
##ece
647
##2e8
50a
##7f4
4c7f
##083
c24c
##806
##4cd
##4eb
cb9
##080
##690
f041
0083
##ff1
0089
bbb
##573
##bcb
##691
851
##897
80c
3607
3706
07cf
##504
f0f2
##f90
ed9
8dc
0087
##6e9
##89d
0a9
##f84
5783
##570
cf7f
659
##d11
6f7
6900
##217
##a05
6f39
c2cf
##40a
##f02
##398
##49d
39ab
65c
ab73
f056
d942
##43f
068
##2a4
##a14
##4bf
6e7
##f52
7ae
##3fd
027
e47
##333
003a
0de
232
##ee8
##4b9
2e1
##2e4
bb1
ac4a
001e
##370
7933
636
##207
##69d
##4e8
##001
##454
##f14
0a1
##4ce
##b82
##8d0
##790
##2ce
025
##be2
##307
##3d6
##3e8
##104
##617
2fb8
##490
##e90
##8ed
##463
##29f
bb7
##fa4
##4dc
0ac
002f
##2c9
4548
##ff6
##378
##8a5
9683
10c
##b81
##439
##bd0
##37c
0033
##f0d
3b6c
##32d
036
##41d
##6dd
##f04
7fc
##6a6
3406
4805
327
##203
##290
3d7
0300
1004
5bc
##45f
##418
##664
727
023
##bf4
##390
6ec
##d0f
0020
##aa4
##2d8
ff7
6252
787
3a7
0035
##ba4
##2ec
4b9
##796
40c
c27
ae08
##b06
1008
287
##294
6208
##baf
##802
##b56
987
##663
##285
##666
##2eb
##8ce
##812
##6f5
4a7
157
##3c9
17c
##41b
57c
##f54
3604
7808
e89
3306
2f06
e87
##624
8000
0003
##281
4d7
0016
##be9
##b0c
9ac
##4b6
##a0a
0030
##403
747
323
##b86
be7
##215
##334
fb7
##404
##8e0
267
ed7
##ff4
050a
##a90
##aa8
##2c0
##20a
##4e9
##b05
347
0dc
4ac
6d7
##8c8
##d06
##602
##2cb
##0e4
##376
##8ca
##6ef
##2d6
8fc
##b0d
6fe
##f2b
##3a2
##f9c
##291
##3ed
##804
6fc
151
##373
6d9
##b5a
dbb
##dd8
##4fa
2b9
fe3c
##f0b
6dc
##288
50c
##ee6
5b9
5ac
##10a
751
##6a4
487
##41a
1de
383
d87
##6db
##21a
##b24
##bfd
##803
887
cac
0023
##302
f36
##a0c
37c
##218
##352
##4b8
b36
ef7
##4c6
##da8
##4c2
336
##eeb
002e
##8e6
##622
##2a8
##af6
4e1
##d02
736
3630
##da2
##62a
##f5b
##d53
##f15
##090
767
##2ed
9b9
##80a
##b02
86c
##bf3
##37a
##62b
##214
##2ee
##452
##3a8
db9
##435
c36
##b88
667
##590
eb9
283
##3c6
##3c5
##f1a
05c
##438
7dc
##202
##b3b
##b5b
##6a2
##105
##add
c6c
##4a3
0fc
##8e8
##05a
##2e9
508
##430
##d16
15c
8ac
##37b
##466
##b85
##bfa
##25d
##45e
2d7
##ee5
##6a8
##b03
##41e
##daf
##81d
##3e6
5bb
##ad0
cfc
2800
##3df
7e7
de08
4e7
049
##444
##3af
c1d8
7f7
##f5f
##43b
##6a5
##224
177
##417
0200
##48a
##854
3506
dc89
##80d
8a00
##2e6
##391
e27
ea7
##d5b
##2c4
##f88
##bf2
##484
783
##3ef
5b1
427
6a7
##b0f
5f7
##2a5
877
##702
cdc
##422
5fc
##eed
##f9a
##656
##379
##424
##4b7
##464
##f82
##d0b
02dc
##a02
##4b0
677
0d9
##316
c67
##42a
##f94
9d9
##4c0
b902
##d14
##4af
##ffc
##fdf
dd9
007b
236
##2a3
5018
##f8f
547
##797
##419
587
aa0d
##717
##4e6
##a04
##431
867
ce9
##6e4
6e1
##48f
949
5d7
##b53
##bf6
##35b
##45d
##612
##6d1
##356
##2fb
##65b
##43a
##40d
##4f4
##f1c
##45c
##3ec
##102
##6a3
936
##df3
3a06
##b64
##89c
##3d4
##61a
1ac
627
##af3
##502
##3d0
##46b
##a0b
aa7
##414
##6d2
##b5d
##222
cd9
##b26
##66b
##486
##6ab
f6c
577
##6f6
##33b
##4b3
##40f
fbb
##d0d
##626
##33d
##d5f
7e1
##ba8
6c8b
##6af
##3c0
a47
##40c
##286
abb
##2da
##253
7a7
5d9
##43e
##4c1
##4fd
35c
27c
##b04
##a1b
##ffa
##ddf
##4ca
##50d
227
##284
##3d3
e67
##3db
##fda
##43d
##ae2
##303
##4ea
##f0c
##ba6
##a92
1d7
##f0f
##05b
##2d0
127
0bb
##455
##482
187
##399
##55e
##fd8
##3c3
##3ee
##458
##416
##3e0
2a7
##374
##103
3dc
836
##f1d
##48e
300
##ba5
##bab
cb1
b6c
5dc
87c
##b22
##55b
436
##2c3
536
##f58
##ad2
##4cf
##211
##f07
##f5a
##b63
1f7
##b8d
##f5d
de1
##2d7
##f17
##f18
##f56
3d9
1bb
2dc
##293
567
##adb
##0ef
##6d0
##434
5098
20c
##4b5
##603
##d17
527
##ff3
##45b
##382
##70d
##d03
d77
5b7
##21d
##28d
##d0e
##b8b
##70b
##b8a
##317
##ad1
683
##35e
##433
##b52
##10d
##2f1
##314
ad9
66c
d0c
##ba2
afc
##8a8
##2a2
76c
##f8b
##f1f
16c
dac
##65a
##f03
##d5d
##3d2
##4b2
##282
##b84
##3e9
##226
##4e2
##38f
3b6d
##23b
##d1b
##2d1
##3cb
3006
##437
##d1d
##29a
##4a8
5e7
147
##4c7
##d84
8e1
##4b1
fd7
##25f
##2fd
##3a4
##41f
##216
##212
##35d
##bfb
447
##f05
##4ba
##28a
7d7
077
0600
##bf8
##fd0
ae1
759
##dd2
##48b
d6c
##48d
##ff8
##fdb
##335
##204
##2c2
0d7
##fd2
##28e
##3ea
##37d
##4c8
##aa6
##45a
eb7
47c
3b9
##dab
##451
##ad6
##22b
b67
##2cc
##ad7
##f5c
5a7
7b9
##388
##fd3
##ff7
bd9
##4be
377
##296
##606
0fe
dd7
##29d
##b8e
##b6b
##d1e
##616
##3f6
##31b
##2fa
##79d
##415
##da6
eac
##21e
##2f2
##2f9
##488
##b0e
90c
8b9
##4ed
8b1
##2e0
##2ab
##4e3
##459
##25e
##fd4
##3d8
##792
##79c
##39d
##28f
67c
##35a
##f59
fe7
##4a6
##3da
##319
##4dd
##2a6
##b2b
##2af
##ddb
##453
##6f9
##658
##4cb
##d56
##694
3e7
477
75c
a87
##3eb
56c
##d1f
fa7
247
1fc
ba7
##2d2
fd9
##299
4fc
##da4
##21c
0400
##311
##f1b
##0e2
e59
##d15
0e1
##d58
##f96
##2f6
ad7
##b8f
d36
##4a5
##28b
8e7
##384
##2e5
##714
##2f3
##2fc
##b0b
##b07
##2db
##411
##d8f
##426
##a1a
##394
##503
##353
##f86
##71d
##d5e
##2f4
##d54
7d9
##2c1
##d52
##f12
##4b4
##4f2
##371
##312
##4ec
7de
##4cc
##ff9
##2d3
##dd6
##4f3
##f5e
##2e3
##295
927
##2f7
1a7
##ffb
##3ce
8a7
##a9a
##f13
##ff5
4dc
##2ea
##3c1
##81e
##2c6
fb9
##20d
##29e
##da3
##375
##4e0
##55f
##2e2
##ad8
##4d8
##4ab
fde
##4e5
70c
##85d
da7
##42b
##456
##4ef
##f95
##40b
7b7
e77
##4a4
149
2e7
##485
##2ca
##799
##f9d
##29b
367
##258
827
cbc
##358
##3c2
##25b
##4a2
##386
##f1e
##ffd
##2df
##699
##fd6
##fa5
##4d1
##481
##d07
008f
5e1
##794
467
##d1a
##2ef
##dd5
##d12
##dd0
c47
##21f
##10c
##318
##354
##d5a
##3cc
b27
##71b
b47
##392
##2dd
##d04
##d13
##f16
##4ee
##2f8
##b5f
##ba3
##3a3
##393
0b9
6b1
##4c4
##718
f27
c7c
ddc
##219
##4c3
##4bc
##31c
##3dd
##39a
##b5e
##2c8
##3f3
##88f
##795
##798
##79b
f47
##d86
d67
46c
9fc
c77
##4fb
##65d
bac
##3fa
##be8
f67
60c
2bb
##d18
##8ef
7bb
##ada
d5c
1d9
##f98
2b7
1b9
##8ea
##a5b
##f0e
##6e8
847
##dd3
f5c
e36
##70e
##313
##10e
7ac
c87
##292
##2c7
##297
##3e3
##372
8d9
##213
c5c
##b58
##79a
d47
387
##2c5
##315
##716
##3fb
##056
##71f
##ae0
##3c4
##f9e
##3cf
##3c7
8d7
##817
##3a5
##4bd
1e9
##413
d83
d7c
##dd4
##d1c
2ec
##457
##beb
##21b
##b54
##37f
##31d
##4c5
##409
##29c
##3f4
##715
##4aa
##37e
9a7
##377
8bb
f87
136
##814
##3ab
##a5a
4bb
25c
##793
##70f
##2d5
3ac
##015
##f19
##4e4
fac
1dc
349
##40e
##552
##f99
##8c1
a67
##41c
##fa6
##d8b
##3d5
##2f5
##ae8
##506
##4f8
##fdd
##ddd
edc
##85a
##2cd
3e1
b5c
##3e5
##259
d27
##3a6
##fa8
##3f2
8f7
9e1
95c
167
##407
##707
##4de
##395
##79f
fdc
##8e5
##f91
##39f
##31a
##704
##651
9bb
##3f8
36c
##f92
##faf
##d19
6bc
##097
##711
##35f
##818
##71a
ee7
##30d
##713
##4f6
##79e
ebb
##412
##81f
##fd5
9e7
##d82
30c
##f97
77c
ce7
##dda
##2d4
##33f
##33a
##f9b
##f9f
##791
947
a27
##f93
967
c0c
a7c
97c
5de
##ff2
##38b
##4c9
a36
##a17
##85b
6e9
b0c
259
##71c
##a0f
##80c
a5c
6b9
977
70a
##fab
be1
2ac
##719
##618
732
##20c
##3c8
##fa3
a0c
##853
##396
ca7
##858
400
##50c
##ae6
##6d8
##31f
a77
f77
##65f
##fa2
##25a
b7c
##712
##305
##ae9
##3e4
##8c7
##71e
##304
26c
bd7
85c
##3cd
##3e2
b00
0e7
33b8
6bb
a6c
ce1
##653
032
##aa5
##659
##aaf
de7
e5c
8b7
6ac
##81c
##605
5100
##ad3
##aea
efc
##39e
##39c
##8d4
e6c
cd7
b77
##053
##39b
##8cb
aac
3fc
3bb
dfc
##205
7fe
##aec
##6e0
##4df
a83
2fc
##55a
ab9
ae7
##23a
b83
##81a
##895
##397
351
bfc
9d7
bdc
9dc
e7c
bec
##614
ee1
##107
##65c
8ec
55c
##a03
##816
##882
2b1
##8c0
##31e
##bec
##6fa
##0e3
##20e
859
4f7
##be6
##8a3
##6f4
##55d
##572
##61d
##819
6de
f7c
##886
##6df
##10b
##856
##a96
##509
883
##eea
##bdf
##a12
##256
##888
##a18
##811
359
##8da
##8d8
##852
fb1
##10f
1ec
##8e3
##8ee
##bee
##25c
##019
##655
##a1d
##aeb
##8a4
4b7
##4d7
##657
##6e6
##80b
cbb
##be4
##30b
##8cd
6b7
##094
##652
##81b
##bd1
##69b
159
e0c
183
##20f
0b7
e83
a59
##85f
##686
7b1
##a16
##a11
##4d2
##807
##8a2
##6da
##553
##8e2
##bd8
##20b
##65e
##8cc
##ae3
##6d3
c83
##f24
7e9
##611
##bdb
##30f
d49
##bda
0ec
##558
7f83
f59
##a07
##8cf
##559
##aab
fe9
8e9
##692
##aa2
##8af
##8d6
##815
##556
fbc
db1
fec
4bc
059
##693
##a91
##85e
##4d0
f83
5e9
##a93
##8eb
##8c9
##6d6
0e9
##a56
##bd6
##8c6
##093
##be0
##ad5
##8e4
##80e
3b7
##30c
##eee
##615
1b7
##55c
##230
7bc
b51
##4d6
##6d7
c51
##ae4
##231
a51
##8c2
5ec
##09f
1800
0bc
ab7
4e9
9b7
##233
##ee4
##61b
2e9
##8d3
651
##a1c
##696
4b1
cb7
##237
##8db
##505
##688
9e9
##4db
##a13
##a94
4de
df7
##bd3
##bef
##dfb
##4d5
##8d5
##bd7
##bd2
##6fb
##8d2
##6d4
##6e5
##896
4ec
##8dd
##6ea
ee9
##8c3
2fe8
2f7
##eef
##6f1
##df4
##ae5
4200
932
af7
3f7
##aa3
##ee0
db7
649
##884
##a0e
0b1
##4d4
##61f
##aed
##bea
3fe
983
eb1
##684
##6fc
##8c4
##813
3206
##50b
##8ab
b32
1b1
##6ec
##a53
##554
##60d
##be3
be9
332
583
##68a
##bed
##0e6
951
449
308
##bdd
483
##8df
##be5
##61e
632
cde
##a95
3ec
47f4
251
##69e
##685
##89a
2de
##6e2
##6ed
##ad4
f32
##a9b
##88b
132
d59
bf7
##682
##05f
600
##63b
##894
##bd4
##afb
##7fb
##80f
##a9f
##613
c49
##8a6
9b1
##a24
##4da
##6f2
##6f8
##f26
##a9d
##a9c
##a1e
##6f3
##aef
e32
##ee2
9f7
432
##bd5
##681
##6ee
eec
dbc
##7eb
##8c5
##6eb
532
##69a
##579
b59
##01f
3b1
##ee3
##a97
##a9e
3e9
##4d3
c24b
7ec
0f7
##05e
##a99
##60e
959
##619
##7e8
6583
ebc
##68f
1bc
e0a
##507
2bc
##57a
##a52
##695
##aee
700
800
ab1
##6fd
##a1f
f51
aec
##69f
cf7
##68e
832
de9
##698
##69c
##50f
##50e
##6d5
##a19
##adf
9bc
8bc
f0a
50ef
##a54
##6e3
4338
8de
07c2
f576
a32
b49
00fc
##a5e
d0a
##a5d
##604
c32
##a15
8900
##df6
##68d
##75a
##6f7
c59
e48c
c00
9ec
##05d
4183
3bc
e51
##68b
8cdb
80a
dec
d51
##30e
3de
##697
2d92
0f83
eb6e
##054
60a
##239
efeb
7f0a
8fe
##7f6
##092
0031
abc
##75d
##234
d32
249c
a00
7308
##23d
##052
cec
##a58
##7e6
##89e
1fe
##57c
650a
e08
##89f
##753
##014
a49
7f06
559
##758
##60b
8018
##238
##01e
##09e
ffe
##57e
408
9de
b0a
##09d
##23f
7f11
##091
9fe
6d3a
##57f
5fe
##752
##756
##095
##7e0
40a
##891
c08
##23e
908
##60c
6400
eb00
cfb8
30a
708
208
##575
##75f
f49
0402
##09b
##57d
808
##af4
20a
a08
##7ea
##898
##7f3
##a26
##574
608
d3aa
##099
ba08
##a5f
##899
##a2b
##7ed
ba98
ae98
##017
##013
##607
90a
##893
##75b
cfe
c0a
##75e
##7e4
749
##09a
##578
ede
afe
##754
##571
##577
b08
##892
##57b
ade
##7e5
4fe
dde
##7e3
bfe
##7ef
f08
849
##7e2
e49
bde
##89b
##60f
2fe
a0a
d08
##0ed
##01d
900
##01c
##0e8
##016
##012
dfe
fe3d
##0e5
##0eb
##01a
d194
5555
d00
9064
aaaa
##0e0
f00
3106
e00
##0ea
caf3
cece
7061
a2b8
2000
##01b
6164
002d
cf08
5683
004c
##8f4
60ec
50aa
0477
ec0a
0a82
14eb
7770
82be
0038
91b8
##824
851f
890a
0a79
aa00
4141
3400
cff1
4a00
f632
##826
002c
ff00
##8fb
0a0a
94cd
1040
b870
782b
f283
2020
0562
##8f6
2bcb
0576
70bc
9200
000e
##82b
##8f3
3cd1
cb9f
d89d
7573
96c1
8dcc
8175
cccc
cc91
4f81
005e
91be
73be
001f
0882
bcbe
3806
8741
4508
3800
f400
0008
4b00
0a02
7600
0077
e000
4504
db00
1010
a298
2787
6f11
0a01
23ac
41ac
9f84
0405
004e
0604
060a
6000
3300
9600
1c00
e76a
0522
2e06
fe00
e010
a2e8
8a01
ce00
7398
0647
5e00
056e
001c
1e6b
3200
7690
014a
6476
c8e1
1f00
0d00
2d11
aaac
51c1
569d
54bf
bf64
0021
0fac
96e9
c897
f43f
0806
051a
0564
2e11
3f11
4ad3
003c
fe80
08f6
9700
1101
d800
65d3
4a05
d1ac
50b8
5083
01ac
0a9d
5147
f243
f49d
6e0a
8200
ff52
ff53
ffc1
4b08
38f5
8400
0132
0512
db08
7643
5207
08de
c1e4
ff02
ffc2
5307
c2e4
008b
eb55
28d0
f728
57f5
cf53
68f7
4ada
3448
03fd
4c4a
2c11
50e6
4100
ce4c
0044
7400
48ed
01fe
dabe
3333
aee8
ffe8
f3fe
01e8
d917
8078
7ae4
dd60
8570
5700
2329
86dd
c900
574b
0111
1020
350d
0de9
007a
5300
0088
e9c2
9f35
f048
549f
ced9
9000
54e8
42ce
65ce
0078
1015
cbd0
65ad
41d9
9c35
101c
0fd9
1801
e8a5
4c00
0fad
89aa
4748
654b
1f90
4245
0f4b
6a00
e454
6547
48e1
0054
6985
8ab9
003e
69f6
f3ff
103f
3500
004a
6caf
0014
1e11
6aac
5500
33ac
7f85
8b82
324b
0048
1f4b
bbde
cd23
7ff6
0217
9c00
a900
aa40
007c
1033
0500
0076
57ad
ad47
47b2
33d6
b2c9
3cbe
0084
c9be
a010
bbdd
107f
6301
bbcf
0235
69f4
5600
0201
9a00
0036
4543
a4b9
65e7
64dc
4ae7
0aad
0070
9c5e
e463
c9fa
ac00
1e80
9601
9fa4
9100
1007
bbec
0090
4545
000c
2046
4542
96c8
81ac
0a4b
dc9b
5000
007d
230a
4648
4846
141d
a800
bba4
4641
684a
4a14
f1e3
1005
64ac
fd83
ab00
e473
0060
e2ba
b82e
bbd1
100c
0064
4164
b010
e812
4145
06aa
2eac
005c
82ac
429f
659f
9be2
bbeb
3c00
5e23
bbc5
1a00
0301
bb00
bbc6
0a42
84d9
0062
0ead
bbc3
1080
6f0d
0079
9800
c800
008e
d418
c7d4
00d4
f900
5b50
a700
7066
bbd2
00eb
bbce
8b81
d0e4
1e88
0340
6700
0528
008a
69e2
a5a2
bbd3
bbdc
a2ec
de50
f010
3f04
ad00
b86c
005a
1b00
0c00
b87d
03ac
0047
f650
ec59
fb74
4b9a
4883
75fb
96ef
efec
6e3b
2985
3a23
c27b
d075
9c57
0061
a490
bbc8
59be
007e
e196
8370
8167
1565
e1ac
0075
2400
7af6
8cec
452c
0e4b
ec4b
12a4
8028
a600
e9c8
a442
008d
69c8
70ef
4800
f600
7fc8
4400
66a6
80c9
7160
5796
e904
9623
974b
8801
025c
dc01
2112
a000
1003
3d37
0074
ef69
dca6
10e2
9500
008c
0072
ecee
0d6f
0a4e
6b01
92eb
ca3a
32bb
1cc9
caf2
2c05
b8ca
29ac
eea4
bbca
7dac
1527
bb56
ccec
0378
e104
5be9
ed98
af2b
a500
6eeb
23e8
113c
be74
fc78
6285
c010
a632
005d
2700
6ecf
c8e0
bbea
e870
005f
1132
8b00
6e00
85b2
532d
552d
2f54
c208
bbcd
bbc4
337c
67ac
0109
3aa4
92cf
f62d
8c00
de2d
0042
4b42
010d
e94b
a100
8001
2900
a400
9900
bbd8
8f00
9e00
7010
9300
8d00
af00
0ac1
0022
001a
c650
16ad
0238
9400
8e00
a200
0024
9850
10ce
a300
bbd0
ff78
8800
004b
484d
654c
8064
000f
9f00
1500
9d00
b41b
56f5
10ac
4d00
ae00
e600
0063
06fb
0073
b600
8700
9b00
b908
0066
6c00
0091
4e00
0068
bbc2
9491
8600
7ee6
e8c8
cc60
6cac
f309
354b
9cec
1eb1
0401
6d00
f380
100f
0c69
0026
4d7e
bbe8
006c
dbb0
cd29
036e
e6db
12e8
18ac
0085
2a00
3a20
7512
73dc
d169
0065
a4ce
fe90
0086
f4ac
0693
004f
7bf1
1570
c0f3
c298
0900
3100
6617
0049
bbcc
9f46
3281
7f9c
2500
9691
1eff
6066
6408
004d
1802
0603
4617
b400
1e59
e900
0092
82a7
3ccb
0098
82cf
0c60
0601
0071
7011
bbc7
7800
73ed
7040
0082
7ffe
ed73
ed99
0081
1700
5f14
0a1a
8bf4
0018
2a65
8c60
699c
acea
a45f
37ac
0aa8
4c60
f500
3a00
061f
00f3
d691
e664
1600
3d7a
0a51
fc00
10aa
5691
0025
1691
0baf
0608
7bd9
3540
c000
2d06
1017
987b
f1fe
b100
4600
3d00
00f7
e666
0067
0a7c
c400
ba50
e667
bbc1
10a9
e665
8500
b783
006d
6800
11ef
3600
1e69
0043
0640
2b00
e203
69c0
0a5a
740a
ca14
101d
04ac
0053
0029
e668
acfa
1dac
3a28
bbd5
00d1
c300
06c3
1201
e34d
0046
7ff4
ec9b
28ac
3f4b
b000
0094
288d
f3ca
d032
3900
1498
d0e3
b101
3000
b200
0dac
00e3
2300
0205
86ca
0051
5c00
976e
7ae3
966c
6100
06dc
b300
0052
006e
36e4
fa00
ffb8
5b00
10ab
0261
025e
e5ac
bb9c
3f4f
6f00
1765
bbc0
b9b3
0a40
e3c9
e88d
4a7d
a88d
0057
bbfd
cb00
ff80
ff4f
dc00
3700
7f4f
1006
688d
0260
0093
002b
7c00
00f6
7700
101f
c8ac
06f4
f2a4
0e00
00f5
cd00
2b06
0102
2983
0a4f
7500
4700
c200
157a
96d9
4166
b800
9db9
8300
7023
ec00
006a
bf4f
0700
0a73
dfac
f217
014e
6e74
7278
de2a
ecbb
2d00
0097
baf3
2c00
0069
001d
1400
be00
b36e
b700
0302
6e68
ed95
6500
ea00
025d
006b
3439
0b00
b500
00de
025f
10a8
1140
96c9
7991
6901
5748
0059
7aac
5bc2
00fb
17ac
cbac
2c20
7429
fb00
ba00
8100
f200
0058
ecdc
bbf9
5200
7780
3f00
7b00
ea98
2b92
4897
06f5
7d00
ca40
bbac
d1f9
6b00
e400
3668
2100
2200
f000
faac
1d00
4b65
6200
23ae
00a0
dc30
11f8
bbd9
e100
3b00
0015
ca00
0019
0de2
10ad
66ac
1300
2e00
f602
00ea
bbf3
dd00
0056
2283
1eed
d9e6
4900
d600
5104
b900
7000
c8e6
74c6
6600
c7b3
2036
f100
659b
e500
e89a
7a00
4f00
cd22
3133
6e80
1e00
060c
4f45
f300
1900
189c
e800
2706
0f00
95bd
6300
5a00
0675
5f00
d400
4300
3634
cf00
6551
9b0c
c500
eaac
3007
7019
9c82
7100
5900
bd0f
7e00
10a7
82cb
7300
7200
a8ff
1200
fde5
9ac8
bbd6
48ac
5800
3dd8
10ff
2539
c600
7f00
bc00
cc00
96c6
c904
d500
8be2
d300
06c0
2f00
80f8
7900
0095
1de8
feac
e200
ee00
2845
5d00
c700
2dac
06a9
6fe5
ac83
c080
d100
e750
fd00
d000
7169
1601
0041
6b41
06cf
df00
deba
e300
da00
06ce
57aa
6d64
bb28
3e00
bbe6
7874
4004
3011
1f14
964b
e2ac
0007
17c4
bbda
ed00
2600
40c9
a40a
6e73
c100
0a59
36dc
94ff
4a81
0055
bf00
d200
f700
a41a
ed80
ef00
f800
bbcb
636f
1708
2ee5
bd00
ecb0
05ad
3761
0667
00ed
f1ec
a14e
fa81
6581
0096
0805
d900
9160
bbc9
5ead
2cac
6098
d700
ae9b
45b6
415d
8bac
0680
00f2
9b9a
bb50
5901
519c
e700
1504
1030
4734
737b
1603
cb10
f508
ce87
9a1b
046e
4e06
faaa
bbdf
e931
96c7
010e
01ff
1808
fe50
3241
ce8b
f0b9
3378
1218
7633
00d3
ec95
0127
7f27
c790
0262
0121
205a
3905
2294
030c
28ba
cac2
5aca
c252
6f40
8acc
cc01
a150
f25d
1408
2025
d9dc
ef0b
f1e4
a047
4c9d
2920
52d6
b6e9
af20
b0dc
1571
981d
3191
ad4e
7983
3640
7ce3
fa04
d656
7593
cb1d
4056
0698
1f5b
949d
d6dc
d298
21a0
1840
74ce
14a0
6f72
6080
b828
f5ef
0d0a
0fe2
ec08
6ca7
4af5
d8ac
34b8
0650
0013
a7d1
7de2
516f
0983
9283
da0c
06ac
9dbe
0e40
c5ac
f36c
9865
10a6
0683
bb40
7f7b
ce49
c291
9138
94fa
cea1
00fe
73e8
c6c8
8e84
2840
1e24
0fc6
9d0f
497f
d55e
ef74
91fc
80c7
7f22
2380
fb4a
00e2
1da8
56d2
df6f
894a
b1ce
fc51
62ed
e0d5
dd90
faff
c1ac
9f7f
b940
38a9
000b
2df3
06cb
002a
391f
dc40
0de1
5011
e0b8
d010
7b01
28dc
1e51
0240
298e
0440
e3be
0010
f3a2
00e8
6f6f
1a4b
0c4c
b32d
1de4
afac
a0b1
bb83
09fb
58ff
65c4
3c09
84c2
ac40
4167
a198
1aa4
00b4
09e0
e2ee
c91f
b001
6593
c439
0617
7726
c8ce
064a
b986
0840
e594
caf1
ee2d
8c01
a524
badc
77b3
c672
0c50
a9cb
003b
a215
ba80
9c24
0011
89d2
a82a
064c
6d51
bbd4
bb5a
7373
0450
656e
dc67
3240
4e59
adc8
9ac7
4e5a
a2d8
00af
0f50
0501
e477
bb9d
b040
dd4c
5b01
7c4e
00ae
d203
01ec
cf40
0c29
e3bc
3caf
c72e
5b40
b5ae
3606
7c61
c88d
bb90
6f6e
9add
ce40
7050
696e
a5a5
062d
2022
57c1
2a68
21ac
adc9
d640
3550
0687
202b
06da
65b4
683c
42b4
b550
4302
0140
48ce
064b
99dc
06ea
74ac
5250
08ce
9029
1f40
3db5
dda2
a040
3c50
1011
0a50
3233
3c01
6d40
ed01
88ce
d23b
f1ed
6163
aefe
3440
06d7
1e40
c999
575b
06fa
0654
06ad
bb24
bb39
a640
5c50
4240
a740
06b4
060d
4050
5040
3dac
7880
0099
223a
b650
6e40
6140
1039
797e
c740
0670
1b0a
db40
ca01
5d40
1bd9
1e77
6940
8740
a948
4740
63ac
1aa0
c450
009a
2101
4b40
2940
0d01
00e9
9a50
ac44
1c40
f840
1340
001b
4e40
4a40
1740
5150
8dde
f6f5
d840
3740
ac70
8a4b
eb92
698d
b840
bbf4
6440
4e4f
bd50
8140
ac43
ea40
010a
0f40
7540
00a9
6f6d
0643
8f40
4540
d740
7d40
f040
eb40
1d40
6040
9501
cb0a
a940
5e40
5740
6540
5f40
b760
5421
06df
2a01
9b40
7640
5a40
6240
b740
6740
93c5
f940
065d
e940
0642
368c
9840
023d
73df
4ddc
06e6
5240
4140
d240
06fc
ec40
3340
5c40
2040
0128
9440
7b89
df40
4440
c040
7840
8940
7e40
7d50
4640
4040
42a8
bb80
8c40
10a5
2676
0009
2240
6640
02b5
e840
8ad0
06d1
5a5a
5aad
c0e7
8b40
ee40
ad6d
3030
0940
6840
0540
ed40
7b40
c340
c640
1440
6a40
6c40
0d40
2c40
4f40
1804
0646
e669
5140
e140
a09c
8440
0740
72ac
0690
fe40
7340
de40
a840
5d83
5003
ff40
5440
2340
f140
e240
bb0d
7450
0624
2606
6340
da40
fb40
ae40
c240
4840
bbdb
7740
2e40
0a05
fd40
9040
7240
726a
1a40
1aa6
89dd
2140
0b40
d250
7f40
fc40
5940
7140
3a40
1b40
e440
3c40
8240
4d40
4c40
4340
2d40
5105
5340
7472
baad
d940
7750
d540
f740
1540
c940
e540
8640
c140
5850
a140
f901
c840
c391
3d40
c440
b240
50d9
6b40
4940
1694
f240
6150
9640
0c40
010f
9e40
3e40
bbfa
1240
026e
06b9
9240
7a40
5540
b540
ef40
d040
bf40
7940
f540
3c80
deac
8e40
4e14
9a40
b640
4e50
c540
f340
9340
8040
3040
3840
8a40
8840
9540
011e
0a5c
5840
1e50
2740
fa40
1090
faad
06a8
d340
1940
3f40
9c40
e701
d140
bbe5
1640
f440
2f40
be28
1524
3140
2440
8340
e340
bb85
2a40
be40
0659
06f2
0651
de06
adbb
2540
af40
bc40
f640
dd40
8d40
e040
5640
cb40
cc40
7440
2b40
db98
9740
d050
6750
7c40
3b40
e740
8540
2640
9940
06e5
b440
3940
c303
a440
052b
00e7
b140
7680
9140
06d6
7650
ad40
bd40
448a
5350
0e01
a540
d029
ba40
06b8
06bf
9b01
d440
b340
e640
5a0c
a240
cd40
a340
9d40
3246
9f40
ab40
063c
f294
1699
00a1
062c
2001
c850
5101
e3d4
50f1
313b
3361
40c8
bb86
0b35
7cac
06e9
06e8
0605
46d0
e663
06b7
cb50
4cb3
5007
4c50
bb26
1012
6dfe
009c
42ac
a8a1
ca83
011a
06b6
1e3c
d248
6525
cbfe
0656
03b8
c80d
8fc9
3d2c
eb05
4948
009e
fa66
821a
3aad
9f50
06c4
3a29
fcb8
009b
2760
b842
6ae1
b6f9
d895
7401
c015
0039
7a4e
7aad
067c
1027
4a50
73e7
00b6
d028
2401
6452
5097
57ce
3bfe
201f
5eac
b983
bb72
009d
e1c3
4a1a
8850
e043
48a8
cf48
0641
8a5b
15ac
125f
4adf
0618
d334
06ba
f46a
c346
b00a
50ea
6aa0
83ef
06b2
ef4c
ce96
803c
0614
0f4f
060b
bbed
c4ac
5c6d
06f8
06f3
06db
1cf9
bb05
6b1f
0660
4142
e6dc
9350
067d
d874
00ac
06b5
0237
25b7
061a
2f29
6365
c8ff
cf1a
069f
10a4
a250
063b
93b0
06de
984e
8f9a
bbf2
1a0b
06e7
026f
00fd
0305
065c
06b0
a880
06ec
06ab
d854
06d8
441e
2935
108c
06d5
7744
069a
d1fd
0628
c2ad
8670
06b3
4fa0
06f9
06b1
2806
94e9
02ac
06e4
fe5b
1093
0697
0602
ef7a
06e3
06d0
06a7
d268
334a
04bb
278e
ca09
bb48
5a86
108d
ca92
514d
6356
c255
90e4
99cb
026d
3624
00e6
71db
0696
7b08
1427
065b
ca38
4804
068d
06d2
0695
af46
eb72
0692
79c3
1092
9201
c78e
1183
00f9
29a1
3cbf
0673
5096
bbb2
3d72
06c6
0ab0
eb0f
06d9
1ac4
00e5
d805
1d16
bb01
06f0
ce3c
bbd7
ccb1
392b
0630
c61a
2ba1
0606
06e0
e974
df94
aa7d
000d
4eac
6e50
06dd
d044
ced1
cdc3
2b3a
de5c
06c5
abbc
0674
26ac
cd53
7980
e352
7706
06d4
7806
061d
06a6
06a5
72dc
3a77
b3ac
615c
f9cd
0634
1096
108e
4c89
003d
aced
2435
10a3
6bc3
28f4
06af
142f
06ee
064f
06bb
068c
9daa
f164
1094
f399
06ff
06bd
0625
cf88
0644
8b1c
3648
066d
06a0
b008
0a68
06be
065e
06f6
065a
150d
cfc4
b612
061e
c6dc
0663
6f67
cd9d
3977
065f
97ac
0662
0645
06eb
bcaa
06ed
b2d8
5b4c
0686
2595
1091
e1f3
cd43
06c1
3a2e
aad2
062f
bbef
6ec6
06ef
c4ce
729f
06f7
df8f
06e2
d6bd
0699
fc11
05b6
0631
108f
06ae
062b
05c7
8349
c00c
df6c
0638
5cbe
0664
062e
c493
0655
ea06
06bc
8376
ec5b
d176
bbe0
06a1
012b
06c8
c01e
06e1
e8f9
0609
24cd
100a
06ca
0657
f9bc
c1f2
3ca9
c7d6
06c7
07f0
064d
0679
0629
109e
068e
0104
0aac
8a06
90fa
0672
0691
c404
0665
bc0a
d83a
3fe9
066f
d2c0
b15f
10a2
3801
06f1
bb33
e47a
5797
c38c
c316
06a3
108b
28bf
7093
c301
0676
1805
064e
a1be
062a
0694
06a2
06fd
cdec
067b
18ad
069d
1095
de60
0639
06cc
3230
6fdf
0616
0658
bba0
05ba
0add
0688
16a4
06cd
06fe
067e
df21
0661
3143
bbe9
0633
c237
06d3
0652
066c
1403
06a4
af50
7f82
9908
0607
0627
8073
00f8
aa05
10a0
f05c
965b
bfac
5550
105a
0615
b05b
0621
1b08
0671
10ae
6a05
3261
96ad
0685
290a
06c2
0150
009f
0653
a37a
0632
c5f9
0626
24ac
063a
f05a
a183
4d08
a053
d680
0db3
0310
11ad
20ac
bbf6
1a01
066b
0649
109f
bbe4
00f1
0684
06c9
068b
04ad
0901
067f
800a
9901
109d
edaf
bbab
066e
069e
3a2f
069b
c075
0682
88de
2c06
fcac
22b6
0619
0689
0681
a180
c66d
d094
3f01
0850
1097
109c
dce6
6732
10a1
067a
80c8
6c8c
00a8
0677
061b
3f8c
060e
f8ac
42a7
109b
1150
f201
0620
068a
0611
b6ca
0668
0648
e5b0
46b6
bbe7
c531
060f
ec01
0610
0c0a
0635
e4b6
0636
068f
0622
0103
0623
c658
0613
061c
1088
0106
c631
0637
108a
75e5
75be
0669
117c
4550
b680
069c
066a
5508
9cc5
1098
6572
063d
802a
1086
0a29
c55f
1803
8180
6c88
bbe1
bb1e
bbb7
00c0
d5d0
9101
9401
13ac
063f
a9ac
01f5
b4a3
3010
109a
5690
504b
00a2
0678
1087
d724
b301
6f73
d3ba
1880
6973
4e57
1786
c112
1517
8f80
3a21
1099
b81e
00ad
1089
5de0
53ac
fc01
f331
5e65
bbfe
00c6
0612
acd7
4144
0666
00a5
fbac
bb25
00ec
4c28
aa63
17d9
2fac
9055
03e1
0241
0d26
0267
00dc
43ac
2c5a
2429
063e
ad83
5a83
00b1
6c8a
ed97
bbaf
e170
2045
80c6
37cd
7250
4480
adc3
1102
7180
d0c3
5ae2
2550
2506
8980
d40a
5283
70ac
151c
df1c
2974
ca58
bbb1
11ff
48ad
1eac
6f66
00bc
11ac
7990
2880
0202
1180
5450
700c
27ca
e25e
f3be
584a
48e8
c011
026c
bb82
15b7
2670
05a4
3183
00b2
11fa
4444
3970
6e7e
00e1
9cdc
eadc
3401
653f
adfc
4e4b
a3c6
ce24
bbfc
00a3
022c
aa64
73b6
c980
00ab
df5f
d818
3b01
00a4
2555
6601
7fe7
11fd
7058
30ac
3838
6a01
00a6
bbe3
4528
cd11
1144
327c
5f7b
11c0
1024
6c69
00b0
0ca9
7334
7280
2750
2936
110a
424d
2edc
00b8
0a32
5080
3135
2d50
9067
c344
9765
97a9
96f6
5a25
6982
bbee
9180
baac
c9c4
6d01
74dd
00cc
fe01
0ad7
00c3
8f83
8080
b041
85ac
bb34
7080
11e6
b583
14e9
00d0
4443
00e4
053c
d1e7
dc90
0125
9f80
fdac
112c
00aa
00f0
bbf0
26f4
ce01
61fd
2527
0cc9
0167
ce9c
11ee
00c1
57d1
f3ac
6f77
07a1
d750
4150
42a4
6c65
00df
8ad1
bb12
00b9
113d
e0ac
00a7
42a9
8b83
3232
0c2b
ac03
00d5
a90b
73ac
0a09
6a27
43c9
e60e
00b5
6a75
af27
27d1
8029
cb98
5cf1
9fb4
1575
0117
dd71
0a07
6d65
9897
ae4c
15c0
00c8
00b3
7e1e
bb42
24dc
4546
71ac
b050
00e0
69a1
040f
8650
c6ac
7632
69cf
c651
1e4a
a201
dc07
6e2d
859b
3235
0363
f97f
49d6
01d4
ac3b
00bd
7601
afe1
bb0c
00b7
4ac5
9c01
af2a
6fac
bbbd
2383
c36a
50a9
bb4a
789a
d201
1103
6f50
3032
e601
7a50
1486
6663
de1a
0483
5084
0802
7fc6
567f
00ba
1145
4cb8
00ee
c3ac
1806
0df9
7a78
de88
3a71
08b2
2ab5
73b8
4601
eb50
fd26
b9e0
ff01
7fa1
7370
6930
114c
1956
0750
00bb
e3af
00c5
7f01
00dd
00d6
f534
00fa
3d50
676c
04b7
d908
0a1f
00c4
11f6
6f80
965a
3266
00be
0480
d150
ba01
636c
0180
4442
bba2
508f
7e79
0278
9d28
00c2
fd49
00d2
00c7
e45e
0f01
dd25
1147
7480
e276
b064
112d
1108
114d
bbb6
ac80
5001
00cd
bbae
205b
7fa4
0542
9015
c602
3001
811f
00ca
dc50
9939
b6ac
1143
89c4
e9ee
114b
6533
6573
03c6
8150
1135
5103
1146
1142
b319
153c
f0ac
117d
9790
f24b
00bf
63fd
b0ac
0dfa
1148
1141
67af
4650
b201
2080
1013
2805
0126
6a0f
0810
4ac8
1c23
eba8
e2be
0114
ead6
bbf1
1179
3250
6963
114a
01ea
0a90
4a01
96d1
3730
1511
3735
04de
0886
2650
3408
7606
fff3
2834
0fda
7374
0438
4f80
ea83
00d8
5650
bbbe
8b25
f63c
00ef
c050
313a
3438
5789
676f
00f4
fa80
00c9
c5f8
e250
6d39
a1c6
6fe0
370b
117f
4644
052e
c154
11e3
7383
6aa8
b188
1149
1025
e202
dfbb
6f78
1aa1
00d9
3080
00db
6172
00da
95dc
4750
1193
50df
bb5b
114e
0ab7
0aa9
113b
0250
1120
100d
7bac
2d76
2496
6edc
1125
0863
e089
0124
8c80
00ce
9a01
1106
bbf8
1104
100e
96ac
5701
7665
16f6
6850
55bf
c390
00cb
5971
17eb
00cf
c401
bd3b
bb79
11e7
2850
1009
7402
9013
3450
6903
03c9
11fc
0a03
11ab
22ac
0129
0af6
bbe2
b501
7623
7a02
30fa
0417
e608
0270
7201
f6cc
11dc
e5fa
dc80
987f
9d9f
7f0f
4244
ace7
2675
6503
3283
509f
f180
a950
b350
0f8b
5c01
0a88
288f
6001
00d7
8879
d080
038f
4201
19fc
f9f6
b786
5750
bb1b
5b08
8cfd
0204
8250
7c50
f2ac
1110
fab1
fe47
11ea
11f2
11ed
ae1f
9680
1169
83ac
8d01
9bae
3ee8
11f3
1085
119d
6073
3137
43d0
bb70
0a20
9450
0cac
4401
11d2
7671
51df
bf01
4bdf
16a1
118a
1f43
fa67
1cac
1bb9
0115
3332
bfbb
0203
3b06
7a83
6c50
11ec
2973
c89c
b124
05a0
7b86
b1df
dc5d
6d50
5cad
1190
024e
7603
7850
4645
1105
8a83
616d
11e2
649d
5f01
3a66
23a4
110b
11dd
1139
c35e
11f5
deaf
11d5
5cac
0880
3f80
11e8
1980
d493
10af
6ffc
0a83
7d80
113f
11fe
4f50
7580
8024
1126
1728
6464
1109
e918
2419
75f1
797f
110d
609c
bb89
49e8
4801
8fca
7421
ca50
11fb
1031
3b03
3d80
110c
6e61
dc83
392d
11e4
f101
11de
fc50
1f83
9301
11d9
4845
1780
454e
9aac
0f07
993c
c996
bbff
11db
7afb
4980
4280
647c
d550
11e5
11eb
8050
bb9b
3733
9605
117e
5201
40dc
1573
287c
8717
8780
507e
8a18
011d
d215
55ff
1107
1186
4e44
11f7
3483
7a80
a750
5880
0a69
102c
f1ac
7422
bd83
2855
5472
3ddf
6a6a
bb1a
8581
bf55
bbf5
5be2
593b
11f0
030a
2d61
a683
2a50
0229
1783
bb57
9cac
1b83
40bc
8e01
5952
7cdb
90e6
7b6e
e526
1171
bab8
9490
8550
3938
2408
1136
a982
73ca
cbd9
1194
0304
49f0
0383
5780
2b19
910e
6eac
fd01
15da
bb91
11d6
04fd
3adb
4880
03db
11f9
aa50
4ae8
9803
1130
91ac
11f1
0266
bc60
c031
11d3
044a
bb9a
a080
f148
11e9
d773
706a
110e
5bcc
2998
11d4
b080
2b08
7989
7158
11da
2776
bb96
6801
1b86
15cb
e729
b9c9
113e
11f4
6250
50e9
110f
16ac
1195
e906
1151
5050
2252
e580
6783
2680
0a11
f950
e080
1138
6c84
8450
6680
b250
0a04
57cf
9080
3330
6e83
11e1
7b80
4ee8
5043
f080
0abe
d8ef
fffa
65ac
11d7
1111
bba5
db80
08ac
1810
28c1
2050
e150
5ae0
0461
5970
0373
d9ac
1121
5f2c
11d8
af83
bb9e
7a0a
a565
b803
1137
46ac
04d8
4165
f4e2
6450
7404
ebac
6f35
165b
4c01
428c
ea72
2801
012a
0db9
5a50
0a3c
e050
2c21
113a
ae50
ec50
1134
1124
bbba
11e0
2031
b7f9
62e9
1133
7a88
f980
153b
7550
3530
3480
0283
15df
bb61
bb04
bc01
a801
c183
64a0
4450
2180
11a6
0280
6f20
0fd7
6f79
1196
9bac
9980
1199
4be8
11b6
5a0a
6965
1175
d880
f07c
bb20
d0be
ff71
bb15
c479
11df
82c4
115d
6f01
39f8
50e8
01c0
d3f7
ae83
653e
23d6
f467
11a4
105f
1167
0404
7cff
5403
ad01
3280
119a
112b
ac50
1128
4e80
3231
6231
1450
11d0
b39d
3537
11a0
c1b0
0214
7c83
4d50
7c80
a883
11bc
0a9a
9650
9d50
5183
e550
112e
a0ac
6480
e895
0182
0ae7
8280
c53d
0d50
0a80
c42a
117a
11a8
4301
1168
54ac
4ce8
82de
1166
11d1
b9ac
4a7a
263a
9001
252b
f850
6050
ae01
1112
2950
7461
dc20
6980
1d83
1198
bb4c
6465
1131
7992
ef01
fd50
6904
d780
cf50
dc02
81d2
3ebe
4be9
73b2
11cf
9d83
f905
e706
058e
7380
c2a5
bb4e
ef8a
ce5f
8410
e650
1118
01fc
2883
6b83
0a1d
1117
f350
9880
c528
3b91
2999
d480
bbbf
11aa
3431
114f
62ac
f880
3680
bb6b
5401
d803
6d83
de3d
f090
ee83
f86f
3d83
4c9a
7d39
cb80
11a7
1192
a47a
d950
9690
83be
1119
55fd
3433
112a
112f
3350
4483
d280
3180
bb16
4de8
86fa
1197
2b83
111a
2d83
55fe
6683
010b
caf4
5f50
7997
6179
a850
9990
c9ef
1123
e922
323d
df50
102e
305c
d501
119f
0223
0406
5b83
ce50
11a5
647d
7986
1129
1750
706c
ae80
ba83
111b
7994
2250
115b
6b80
445c
6674
1115
4350
36ac
d9d1
170a
6e2b
55ac
11a9
08e9
5501
1114
1f15
1161
50e3
80ac
7d83
b450
6f83
b280
4878
119b
fc49
7101
9c8b
dacf
db30
ed50
11b9
111d
eb28
119e
9050
93ac
bcac
ac01
16be
312e
0aaf
10b0
f501
2853
11a1
7065
04dc
4a83
e914
a87f
7ed7
5b88
1113
03d1
6e08
d801
f780
0a24
d458
1d21
cc80
2e08
ff50
af01
5616
8750
5c93
6f6c
1172
11a3
2c50
0980
1d69
55fc
1127
0350
bb17
bb94
bb95
3644
1aac
6eb6
9070
7982
d9ce
d180
8416
5583
11a2
1350
119c
bbb3
dd01
1155
1122
2980
862a
7950
1885
8201
1160
bb30
0a0f
acac
6f03
3a50
7150
7783
c880
8880
1b50
5070
5483
6f63
dd83
cea8
1116
1037
6d80
ea53
0271
0af3
105b
0276
d101
4f52
23ec
11cd
0c83
5980
5b95
7988
80ba
4250
3783
6883
f58b
76ac
1f73
cd50
5ba6
7b50
e880
1b80
118b
f601
e850
c083
0a5d
3f46
3132
115e
ee50
3f50
f583
da50
2b50
10b7
4249
1157
48c7
d56e
1191
0b90
11b5
d46c
9a90
3880
1177
11ce
1159
a592
bd94
111c
31e0
6483
0277
e4ca
32ac
0460
8f50
1156
11b4
6233
b850
f150
0583
3430
2450
e755
7f80
bc83
115f
1cf6
115a
187f
d283
7001
d650
0a6e
10d4
c30f
1170
1918
0a2c
7e50
0a8e
6650
5886
7333
a487
2a83
5bc7
11b8
bb67
dcac
b380
1380
50ac
9480
1050
8cac
6280
111f
8d50
11ba
a1c5
9590
dd6e
db50
3262
11b0
3a83
3d01
3139
502f
9580
be50
7a56
b980
646f
bbfb
8f01
a550
7183
11b7
798c
3a73
1176
bb7f
116d
ea54
7350
dc31
f783
36e0
11af
e896
05ae
f7ac
0183
578b
11cc
11b2
0a37
6501
bb78
ea50
4083
0279
116e
fb0d
5365
111e
1163
1173
5c80
1c50
a383
ed83
bbb5
0376
7e80
3a31
0bac
6f38
5b80
4383
1188
1187
bbb8
6950
6472
d783
84ac
9f6e
0e50
8950
b950
3e50
ac37
024a
2906
0332
3a30
1083
11ae
7ae0
dba1
1568
c3a9
1158
3e0a
4344
56d1
5950
116a
6580
3766
37a4
4f01
6f64
ccac
0ac0
2350
11b1
1165
d350
5f15
1162
8b50
ec80
61ac
42a3
6f22
156a
116c
4253
e280
9783
6383
d450
6083
cce8
11c1
1022
a7ac
5301
9de6
25ac
11b3
6bcb
1182
8783
a480
6183
115c
d483
80ad
6812
3050
bb2c
05aa
caac
11bb
4b50
1483
fffe
28e8
1178
7f50
6c83
1152
4ca0
993a
0236
1f86
6380
1f80
2f50
a40c
0380
e2fb
0268
6134
3472
1906
e980
4b83
bb59
1480
8e80
2f31
e501
e450
4e83
e383
db83
1602
8c50
3980
2bac
3234
116f
fc83
1a83
072d
320a
3eea
6e7d
c750
1181
6e64
b4ac
118e
df90
ac02
1550
b81d
c290
3130
d47a
0331
0b80
1184
f250
2683
7985
118c
a4b3
1174
a901
ce80
bb31
dc1f
3983
dc21
42e6
11c5
118d
01ca
1850
b880
1164
5d80
0e83
1950
6d61
edf5
1189
4c80
8383
11be
fb50
1572
9b90
5e80
d802
663b
4850
c383
7b83
8e50
7b03
f402
6469
0252
3937
4a80
3850
3239
4080
4580
d380
eb83
6672
9950
5d50
6f6b
ec83
f9a1
c376
9380
0a21
1820
e780
4646
ce83
19cd
dc5e
b283
90ac
6f1a
03fe
395c
a283
f382
e7ac
0245
8983
1154
0a4c
f450
7343
1153
dc5f
ff90
662b
cb83
1e83
f883
da4d
1346
3c83
efac
a583
0490
fa50
ac39
1185
cfac
eb80
d980
8742
7cb2
696f
6f74
0222
6283
e783
2183
fe83
3469
5c10
5b31
43a1
11c8
3580
8e85
4b80
f183
dc5c
c550
f483
9fe2
2b80
bb8e
b22e
9a83
3484
d0ac
bb2e
1583
5b29
60ac
7473
34c0
118f
c950
2280
3150
4d5f
116b
10b1
11c3
6f06
5e50
e083
69ac
f550
2e80
7683
eeac
de90
3339
16a9
6983
01cf
9b50
5b89
0ff0
1605
5e83
ef1f
081c
da83
8183
8a50
496d
3238
5f83
ab80
4a9a
458c
3383
bb93
24af
e898
cf83
8eac
6478
0de3
021a
0883
6d42
2015
2501
e680
056b
52ac
0cd8
736f
2f80
24b0
9083
1c80
fd80
5383
0816
ff11
77ac
ad80
0470
bb8d
f455
f680
5066
b2bf
dd50
fb14
6f18
ceac
117b
6f0a
e897
bb3e
5883
7583
037c
37cf
11bd
01d2
50b2
11bf
7883
0269
6639
07ac
55fb
b710
1580
be83
0272
fa83
7501
0a1c
05af
1383
7dce
05c3
9183
302c
0256
3c57
a483
65fe
3e83
2808
e283
0c01
3a80
0d80
6dd7
8480
d383
90f4
798a
b35b
2083
3ade
0275
056a
153d
3bac
f750
fb80
6561
bb0e
2363
f983
db90
6a50
8883
dc22
5fd8
c483
cbca
3583
9550
7996
be80
1014
81dd
4283
9d80
ea80
cc50
e3ff
0d83
bf80
95ac
e883
11c2
1250
5983
cf80
88e7
312c
1c83
65e6
11c6
4f44
9383
b083
a083
7083
0249
d883
8101
9883
a3ac
861a
79ac
6b6e
5ce8
32c0
7e7e
8c83
026a
e92b
8e83
5004
0b83
2483
11c7
7064
7006
05b4
b883
e7e0
7261
ff83
5868
e483
2032
3cac
8380
9e80
4783
6f10
626c
9e83
b183
11cb
c201
6262
a6ac
7266
2c83
535b
ac7d
5244
dc99
437c
3650
4265
89de
7e83
e683
1a80
c380
50fe
c680
11c4
fb83
7483
5c83
5006
f083
0160
bf50
3683
4d39
d683
636e
8c05
b383
d083
dcf0
4c83
f338
0dbf
8283
a450
d183
0580
3083
bb0a
ab46
5480
b483
2480
de80
11c9
4128
0783
6880
8483
8083
1283
6777
4854
11ca
c001
3435
f6cd
e899
4583
3131
5280
4950
3883
9c83
4d83
2c80
ad50
7552
3a7a
ec99
47e8
8d83
4fe8
4683
7993
07e9
6401
a101
4983
f050
dcf2
7270
5601
0e80
4d80
fa35
dd55
60b5
c580
0273
d983
b750
7773
2888
d405
0a55
e983
4643
3031
1650
70e6
0137
2e83
0290
6f08
8583
a350
d850
e001
0a35
c583
bf83
18ff
6d68
c683
1049
a4ac
7347
0af2
786f
9483
7c89
a650
9c90
24b3
b25b
dc39
4b70
f383
d583
6132
3405
1cd5
fc80
1883
1683
9583
6e48
9c50
6a83
a980
574f
e090
2e31
798d
3434
e19f
5b53
8b80
7283
2002
df83
2f83
5a01
a001
020a
e183
8683
322e
9780
7879
9150
aa83
34a0
6461
de83
dcf3
4a89
2150
083c
fa92
5180
ae41
745f
34ea
dc0a
c883
cb81
b7ba
1680
be01
4aac
1a56
3b83
0a10
310d
9280
b683
703a
2780
3750
9f83
bbf7
80e4
d878
ecac
7995
0a3b
bb18
503d
f683
a046
4502
798e
bba9
0950
f580
bb22
f5ac
3380
b480
ff70
7276
979d
e350
1041
011c
6f7e
a783
9b80
9a42
bd80
a9c0
173d
722d
6c61
6007
0990
10b2
2908
cc83
0dc0
98ac
9983
f401
6dac
c350
db88
6f7a
58ac
5085
9b83
35be
6369
2c31
a680
8580
e583
a983
3f83
2301
4441
6eaa
0780
520a
2abe
6765
5b28
39ee
eeb3
9d90
1d80
ab83
2783
1f50
44ac
014c
6dc0
0701
42e5
4f83
90cb
0149
d804
0dbe
1018
4445
4745
dd80
1983
c280
4686
c283
4680
1a50
cd80
5bac
bc80
6810
7ad1
4780
2b43
2901
6f71
0801
57ac
6b50
4446
3081
dce4
a8ac
6f7b
ef83
74dc
2583
c890
c11b
6bac
3845
7475
09ac
dced
8680
0803
5680
e950
0428
726f
6f85
0a18
5a8c
89ac
798f
100b
bb8f
07fb
7518
0790
1d50
e201
8a80
c250
d601
9250
fbb6
0a1e
64ae
e8ac
dd1b
6180
95be
c783
9dad
2d80
bb14
7dc6
0e9a
bf90
4c9b
d580
c590
b780
6cc6
3b50
0b50
a580
1280
5273
dcf4
0274
7069
6780
bb19
7204
ad98
b7ac
7901
6c01
7f7e
4576
7608
dce5
c983
aa80
6f32
03ff
0147
f280
7e0a
7a01
32e7
5b2a
af80
a938
2b51
6f70
8365
10b3
d64f
5151
1c01
53ec
dce3
5769
5e29
6c80
e3e0
8510
29b9
6562
6f5f
6f2a
1401
6589
d427
3288
2d01
3906
bc50
746e
dcbe
647e
0a5e
c690
0c5a
c0ac
cdbe
5264
18af
04a0
3ff4
dc29
cd83
14ac
0a1b
3623
5580
524a
3950
0449
9368
bb3f
82dc
bb09
8f96
f960
3201
630a
6175
8fac
5380
b180
3535
4de9
1060
a780
03d8
3531
9e50
1029
55eb
4180
e480
7ae9
9fac
b0a9
bbad
2e50
bb8a
51e8
049d
279c
0a43
0559
0166
dcf5
7d1e
681a
30d4
24f4
a005
8743
3236
50e7
afcc
084d
5f80
6165
0a52
798b
5801
01d6
6b24
6176
bba7
da80
0da0
3b80
8c75
0f84
7984
024b
8805
6a80
6a52
3930
4376
05d2
476f
4cfd
0778
4875
3101
c14b
bbb4
73ee
3570
ca90
78ac
6e93
6f4c
404a
6f3b
fd85
6f3f
6f61
6239
314b
01fd
020c
a9e5
9966
50cb
eb06
2828
a280
6f1b
5209
1932
6f75
6f2b
2a70
a8e8
ad0a
1e79
d204
da90
6f76
5774
1c8a
53a8
94ac
6f62
016c
6546
0155
6661
34ac
ef80
f3ad
6337
3957
f89f
0a17
3337
dc65
352e
695c
75e6
6f7f
306b
b580
7981
ca80
cb01
2202
6cca
2a06
7987
323a
2b4d
4001
64b6
daf3
3a24
4345
d3a8
bb23
e2e9
3384
7eb6
313d
6101
e290
4fcb
5a80
9e90
9a80
bb5d
5351
b30a
c990
6adb
c780
e676
026b
c743
5e05
3432
3e80
0c80
9508
1aa5
6350
c180
0190
81df
ee80
385d
2899
0f0a
12b6
77e9
5252
7301
6f02
6869
b81f
5311
6f4d
19ac
92c0
dab2
17d3
d1d1
53c3
c480
f466
ee09
ed0b
734c
080f
aeac
69ef
d3af
8fce
f6f6
043a
4bac
e380
cb90
28ef
5c44
5046
e35c
7282
e89b
65e3
9c80
2159
2844
7cc4
3532
d1cd
7129
6f47
0484
6e22
e790
6f65
5dac
3780
dafe
bce6
4da1
66cb
2a80
5131
90f7
c529
dc27
e9ac
81fc
6e17
e3ac
6b53
8e08
3465
2030
415c
6e0d
280a
e190
3420
5973
6f7d
024c
7d01
5352
f480
6f5c
c901
3ca3
e622
6f5d
a2ac
12ac
fae2
6e2a
0825
9eac
7c01
10b4
7332
ea01
3097
027a
bb7a
6537
bb8b
5fa5
9390
5471
7b68
9c31
15b3
d1c0
5454
2826
84f4
15f3
3033
6f5a
6fc1
215f
9750
5065
6ef0
1016
7701
3dca
3468
9062
4b0a
5a4a
08ea
2580
ff3a
b2cb
7801
1bac
ab50
706f
2ef9
8701
57e2
4358
e318
ccbe
0136
0a31
7876
4652
d851
5581
31ed
7465
9abf
07a2
870a
45ac
f02d
7cdd
0769
6e21
2201
5a0b
7423
9308
e390
0161
641b
7070
2e30
6e53
d1c2
fd90
3601
e253
a88e
88e5
6df1
7b67
3935
1e4f
a1ac
0a3e
3728
2006
6f4b
1a90
e89c
7ac8
2692
0eac
9290
f301
045f
6f42
4005
33c0
796e
6368
370a
6f4f
ec90
616c
50a8
86ac
6361
2134
1807
42c3
986a
5467
ecf6
5629
4588
284c
6f4e
deeb
7273
d990
0a2a
2601
c150
2510
7331
6f60
ef50
7834
a894
25ec
4f70
385a
3054
6949
0db0
2466
4252
0502
6f45
8725
bfd0
09f4
6f52
e5ef
55a8
7369
7c8a
201c
fd6e
3837
7dc3
e901
13a8
b7bb
4309
91ec
4a12
24b9
d1d2
2e01
0120
1474
6873
7737
756a
1081
69e7
0ae2
e801
dd20
9367
0c7c
6e65
f9ac
6f48
b150
e15f
e180
eabb
6859
dc26
5f7c
3237
4dac
dc32
8350
7132
9d01
0f80
5bca
80c0
facc
d3db
bba1
755a
6f33
2ec4
0b01
e9b0
21b0
cc90
f6ac
0122
322d
6f68
6f46
ac90
6f3c
dc1e
5e2d
dca1
5b87
f634
2ecf
6da0
222c
7657
94df
cbcc
6f3d
dc60
3e01
7fcf
e55f
40ec
6f5b
0adc
7ce7
d46a
0590
920a
93a8
68ac
eace
2aac
acfe
4226
d6ac
2824
0e0a
0179
bc62
b1ac
8d80
34b0
e894
1eba
5759
dc3b
27a9
02c9
8a9a
4c57
7032
0a56
4e4d
6f5e
db64
01b8
fa01
62fd
6da2
8821
42bb
6f53
3901
7c36
e6ac
64eb
9cc7
bec9
7274
b1cb
ac0a
305a
28a9
d6e9
bbaa
a131
f403
4973
dc08
adb9
b2c0
2423
6f49
176d
f5dc